<pad>	0
<s>	0
</s>	0
<unk>	0
s	-3.2629
,	-3.52383
▁	-3.52749
.	-3.80141
▁and	-4.25301
▁the	-4.5091
.
	-4.74314
0	-4.74666
▁to	-4.76784
ing	-4.84258
▁a	-4.85995
1	-4.89074
-	-4.91373
▁of	-4.92693
▁in	-5.03765
2	-5.07572
d	-5.07991
t	-5.08869
ed	-5.09908

	-5.21558
’	-5.29911
▁for	-5.43712
▁is	-5.48235
er	-5.49462
y	-5.54245
e	-5.552
'	-5.56122
ly	-5.63491
▁that	-5.6431
n	-5.75575
:	-5.78239
3	-5.79416
▁I	-5.80962
5	-5.81927
al	-5.84207
▁(	-5.8664
▁it	-5.86859
▁with	-5.89428
▁or	-5.93725
m	-5.97729
4	-5.97799
▁on	-5.99415
r	-6.03085
9	-6.0397
▁you	-6.0398
▁S	-6.04755
▁The	-6.06344
re	-6.09287
in	-6.13719
▁of▁the	-6.15258
a	-6.18116
8	-6.20427
6	-6.20736
S	-6.23322
)	-6.25944
▁your	-6.26076
or	-6.26156
o	-6.26352
▁in▁the	-6.27422
7	-6.27998
The	-6.28583
▁this	-6.28999
es	-6.34261
s▁and	-6.34581
▁at	-6.34788
▁A	-6.37018
A	-6.38347
I	-6.38753
▁an	-6.41259
▁was	-6.41715
▁from	-6.42802
th	-6.48019
le	-6.4819
▁F	-6.48611
▁B	-6.50411
▁C	-6.51319
/	-6.55576
▁by	-6.57535
i	-6.57738
k	-6.59033
D	-6.60499
P	-6.61845
ur	-6.61854
▁has	-6.63425
▁re	-6.63895
el	-6.64412
p	-6.64865
an	-6.65548
b	-6.66855
C	-6.67664
▁we	-6.68267
▁will	-6.6836
▁are	-6.69568

-	-6.70784
▁p	-6.71075
g	-6.72398
▁as	-6.72739
l	-6.73349
c	-6.73979
▁all	-6.74399
on	-6.75236
B	-6.76022
f	-6.76062
▁T	-6.77549
it	-6.79442
▁so	-6.79676
▁not	-6.80628
ar	-6.81229
en	-6.81711
▁but	-6.82085
▁P	-6.8292
T	-6.82945
il	-6.85498
▁on▁the	-6.86015
M	-6.86228
▁time	-6.86639
▁one	-6.87591
▁my	-6.88084
et	-6.88154
ion	-6.88596
!	-6.88611
ers	-6.88786
▁more	-6.9016
▁to▁the	-6.90307
ation	-6.90711
▁about	-6.91081
s▁are	-6.91658
▁their	-6.91724
▁D	-6.91911
▁can	-6.92126
▁our	-6.93112
▁his	-6.93196
▁out	-6.93502
F	-6.93917
ic	-6.94069
ve	-6.94169
s▁of	-6.94832
?	-6.9665
▁up	-6.96776
▁he	-6.97013
▁G	-6.97652
▁be	-6.97735
u	-6.98493
at	-6.98644
▁also	-7.00297
w	-7.0057
E	-7.01329
▁have	-7.01829
▁her	-7.02959
ri	-7.03063
▁me	-7.04226
"	-7.0509
▁just	-7.06955
L	-7.07046
▁who	-7.07194
▁E	-7.08617
▁b	-7.09278
▁for▁the	-7.10091
G	-7.10131
h	-7.10472
▁H	-7.10601
▁M	-7.11048
▁some	-7.126
▁which	-7.12734
▁what	-7.14338
ate	-7.14382
id	-7.14868
▁said	-7.14972
▁In	-7.15304
▁“	-7.18889
▁–	-7.19608
est	-7.21131
st	-7.21323
able	-7.21729
;	-7.22565
”	-7.22616
▁new	-7.22973
▁over	-7.23322
▁do	-7.23437
ment	-7.23478
ive	-7.23936
▁N	-7.24232
▁no	-7.24334
▁Re	-7.24493
ll	-7.24664
H	-7.26497
ir	-7.27017
▁any	-7.27571
▁W	-7.27779
ity	-7.28361
▁R	-7.2896
▁they	-7.29189
▁de	-7.29233
ro	-7.2998
N	-7.30125
li	-7.30718
▁K	-7.31254
▁like	-7.3136
W	-7.31529
▁us	-7.31586
O	-7.31993
▁-	-7.32001
z	-7.32692
▁f	-7.32742
R	-7.32868
▁work	-7.32889
lo	-7.33117
▁L	-7.33123
is	-7.33534
▁people	-7.34093
▁"	-7.34168
ter	-7.34521
am	-7.3453
▁other	-7.34686
us	-7.34822
age	-7.35109
com	-7.35978
▁It	-7.36105
im	-7.36684
s▁to	-7.37199
▁them	-7.38214
ent	-7.39045
▁We	-7.39198
▁two	-7.39719
▁is▁a	-7.39745
▁get	-7.39965
▁will▁be	-7.40658
▁and▁the	-7.40987
ch	-7.41109
!
	-7.41882
ra	-7.42003
▁with▁the	-7.42696
▁at▁the	-7.43137
ul	-7.43253
as	-7.43956
▁she	-7.44371
▁to▁be	-7.45106
▁st	-7.45191
ry	-7.4535
▁&	-7.45837
up	-7.46209
ia	-7.46376
▁had	-7.48317
▁only	-7.48443
▁con	-7.50164
ne	-7.50217
▁from▁the	-7.50267
s▁in	-7.51596
▁use	-7.51611
ist	-7.51827
V	-7.51912
▁O	-7.52034
▁$	-7.52528
▁He	-7.52912
ol	-7.52976
▁when	-7.53805
▁its	-7.54018
de	-7.54873
ad	-7.55208
um	-7.55451
In	-7.55503
▁St	-7.55504
K	-7.55887
se	-7.56734
▁This	-7.569
ies	-7.56918
?
	-7.5695
.
-	-7.58108
▁un	-7.58218
▁in▁a	-7.58252
co	-7.58358
v	-7.58408
ant	-7.58411
to	-7.59955
▁back	-7.60084
...	-7.60122
▁with▁a	-7.60364
▁g	-7.61209
▁many	-7.62993
▁were	-7.6349
▁home	-7.64116
and	-7.64152
un	-7.64172
▁day	-7.64571
▁how	-7.64578
▁after	-7.64935
ie	-7.64998
ine	-7.6504
ge	-7.66006
▁would	-7.6611
op	-7.66366
▁d	-7.66913
ed▁by	-7.67556
▁first	-7.67773
▁co	-7.67944
ing▁the	-7.67998
▁into	-7.6821
man	-7.68604
▁very	-7.68962
U	-7.70146
▁here	-7.70192
▁V	-7.70232
▁U	-7.70294
▁years	-7.70644
na	-7.71575
pe	-7.71715
ce	-7.7188
▁place	-7.72122
ut	-7.72746
▁see	-7.73717
||	-7.74076
▁now	-7.74149
▁made	-7.74323
x	-7.75309
la	-7.75551
ta	-7.75789
▁t	-7.76308
▁life	-7.76584
s▁for	-7.76751
▁where	-7.76811
▁you▁can	-7.77011
ary	-7.77337
Y	-7.77818
▁team	-7.7814
▁De	-7.78615
▁these	-7.78858
We	-7.78913
▁good	-7.79073
ill	-7.79457
son	-7.79787
ance	-7.79922
%	-7.80392
me	-7.80619
▁through	-7.80661
▁year	-7.81058
▁car	-7.82135
▁most	-7.82313
▁support	-7.82359
▁l	-7.82602
▁down	-7.8328
ton	-7.83498
per	-7.83812
ian	-7.8404
▁being	-7.84047
▁if	-7.84376
▁show	-7.84424
s▁that	-7.84829
▁as▁a	-7.84879
ot	-7.85444
▁even	-7.85979
▁while	-7.8601
ig	-7.86731
▁For	-7.8691
▁for▁a	-7.87251
ac	-7.87262
ma	-7.8768
▁way	-7.87789
ty	-7.87865
min	-7.88626
:
	-7.89228
▁make	-7.89481
▁e	-7.8991
▁w	-7.90505
▁off	-7.90515
),	-7.91079
J	-7.91455
▁there	-7.91802
▁great	-7.92016
▁free	-7.92647
ub	-7.92711
▁of▁a	-7.92727
▁love	-7.92729
▁can▁be	-7.92803
▁before	-7.92867
be	-7.93062
)
	-7.93065
▁Co	-7.93948
ting	-7.9487
ver	-7.95015
▁You	-7.95401
▁To	-7.95807
ake	-7.96249
▁really	-7.96283
▁has▁been	-7.96583
▁Ma	-7.96915
▁m	-7.96998
▁So	-7.97718
▁experience	-7.97774
▁c	-7.97825
▁him	-7.98053
▁business	-7.98201
▁J	-7.98344
ure	-7.98461
This	-7.98645
ick	-7.99018
ice	-7.9937
▁information	-7.99477
ated	-8.0001
▁both	-8.00371
em	-8.00782
ating	-8.0129
ha	-8.0134
,”	-8.01539
ed▁to	-8.01669
▁go	-8.0184
▁because	-8.01991
▁don	-8.02285
▁every	-8.02476
end	-8.03014
ster	-8.0314
ab	-8.03226
▁may	-8.03279
▁different	-8.03579
▁And	-8.03798
all	-8.03799
te	-8.03852
▁three	-8.04182
▁Mo	-8.04533
.
“	-8.04585
▁well	-8.04778
▁those	-8.04927
▁find	-8.05241
▁r	-8.05526
▁high	-8.0564
ish	-8.05648
▁could	-8.05779
ci	-8.05795
mo	-8.06276
ell	-8.06394
ling	-8.06405
▁then	-8.06419
▁know	-8.06433
▁each	-8.07804
▁post	-8.07927
port	-8.08075
▁pre	-8.08245
the	-8.08994
▁found	-8.09256
▁start	-8.09353
▁take	-8.09545
▁Me	-8.09965
▁v	-8.10104
▁right	-8.10116
▁end	-8.10196
sh	-8.10444
▁But	-8.10683
▁Be	-8.10922
▁look	-8.11065
ence	-8.11372
▁under	-8.11397
▁water	-8.11425
ness	-8.11554
▁than	-8.11819
ap	-8.11967
▁including	-8.12162
▁that▁the	-8.12323
▁it▁is	-8.12525
▁read	-8.1256
▁should	-8.12574
land	-8.12639
▁family	-8.12758
ite	-8.12791
ag	-8.12853
▁design	-8.12876
▁service	-8.13051
▁state	-8.13592
▁set	-8.13865
ous	-8.13952
no	-8.14209
▁site	-8.14532
▁dis	-8.14729
he	-8.15364
line	-8.1633
ow	-8.16518
▁still	-8.16541
▁help	-8.16914
tic	-8.17012
▁La	-8.17158
▁available	-8.17164
▁system	-8.17198
ful	-8.18133
▁need	-8.1825
hi	-8.18627
▁Con	-8.19221
our	-8.19348
▁book	-8.19581
ho	-8.19772
▁long	-8.19866
▁have▁been	-8.19897
▁sp	-8.20179
▁come	-8.20221
▁ch	-8.20414
.”
	-8.20642
).	-8.20801
▁game	-8.20824
▁is▁the	-8.20934
out	-8.21017
old	-8.21041
▁h	-8.21172
▁always	-8.21514
way	-8.22114
ex	-8.22344
ni	-8.22387
one	-8.22586
▁Le	-8.22733
▁online	-8.23366
▁call	-8.23378
▁since	-8.23693
ak	-8.23932
▁She	-8.23937
va	-8.2411
▁process	-8.24577
▁per	-8.24816
▁things	-8.24823
▁mo	-8.25125
con	-8.25351
▁school	-8.25472
art	-8.2563
less	-8.25673
▁group	-8.25844
▁hand	-8.26234
▁As	-8.26294
ed▁in	-8.26346
▁area	-8.26492
ay	-8.26678
▁around	-8.26702
▁Bo	-8.26831
os	-8.27318
▁something	-8.27434
▁best	-8.27627
▁po	-8.27843
we	-8.27854
▁app	-8.27998
▁Ro	-8.2836
▁today	-8.28377
▁head	-8.2841
mm	-8.28451
ack	-8.28576
ial	-8.28637
It	-8.29382
mon	-8.29515
▁play	-8.29768
▁used	-8.29867
▁market	-8.30046
▁pro	-8.30172
▁without	-8.30209
▁too	-8.30337
tion	-8.30462
▁No	-8.30649
lu	-8.3067
ti	-8.30703
s▁with	-8.30731
▁local	-8.30755
s▁from	-8.30829
▁gr	-8.31024
▁another	-8.31234
go	-8.31372
der	-8.31404
▁and▁a	-8.3149
▁line	-8.3191
pa	-8.32098
▁last	-8.32158
dy	-8.32179
▁Ra	-8.32253
qu	-8.32268
ted	-8.32336
ide	-8.32425
od	-8.32496
▁video	-8.325
▁report	-8.32853
▁on▁a	-8.33184
▁website	-8.33356
ard	-8.33434
▁better	-8.33523
|
|	-8.33644
bo	-8.33841
▁name	-8.33869
▁season	-8.33899
▁light	-8.34074
▁using	-8.34129
▁live	-8.34244
▁Pro	-8.34291
▁form	-8.34426
▁company	-8.3452
ud	-8.34574
ical	-8.3459
ang	-8.34699
ast	-8.34714
▁the▁first	-8.34755
▁An	-8.35104
▁data	-8.35175
ner	-8.35263
ed▁the	-8.35453
ga	-8.36068
▁product	-8.36178
▁much	-8.36276
king	-8.36347
▁to▁get	-8.36452
ring	-8.36695
ru	-8.36789
▁visit	-8.36793
▁open	-8.36794
gu	-8.36918
▁They	-8.37491
ee	-8.375
▁‘	-8.37589
ph	-8.37625
▁between	-8.37628
▁days	-8.37686
▁Mar	-8.3777
ile	-8.37882
▁Do	-8.37984
▁page	-8.37993
▁services	-8.38216
vi	-8.38632
▁price	-8.38648
▁level	-8.38734
▁sh	-8.38838
che	-8.38894
ten	-8.39024
▁more▁than	-8.39138
▁offer	-8.39366
▁the▁same	-8.3959
▁think	-8.39607
▁cr	-8.39683
▁never	-8.39708
▁want▁to	-8.39807
▁put	-8.3994
au	-8.39987
▁full	-8.40036
ship	-8.40125
▁plan	-8.40403
▁sc	-8.40497
▁Y	-8.40768
▁food	-8.40784
▁hard	-8.40949
s▁on	-8.41098
▁special	-8.41331
io	-8.41561
▁Al	-8.41818
▁run	-8.41839
▁enjoy	-8.41927
▁the▁best	-8.42878
,"	-8.42883
▁project	-8.43169
▁All	-8.4353
▁sign	-8.43672
ing▁a	-8.43777
▁children	-8.43804
Re	-8.44113
▁been	-8.44156
▁Se	-8.44223
▁making	-8.44272
.
"	-8.4493
▁comp	-8.44934
▁students	-8.45171
▁view	-8.45239
▁want	-8.45247
▁if▁you	-8.4536
▁—	-8.45538
ue	-8.45792
ning	-8.45817
▁program	-8.45841
▁into▁the	-8.45905
▁Z	-8.45987
ear	-8.46022
ki	-8.46106
For	-8.4613
▁until	-8.46202
ally	-8.46212
▁past	-8.46302
▁music	-8.4638
▁community	-8.46508
▁research	-8.46525
▁side	-8.46558
▁change	-8.46733
▁room	-8.46751
▁man	-8.46772
▁important	-8.46822
▁personal	-8.46823
▁a▁few	-8.4684
s▁in▁the	-8.46975
▁i	-8.47075
▁feel	-8.47149
▁job	-8.47272
▁by▁the	-8.47285
▁night	-8.47348
▁j	-8.47424
▁Jo	-8.47565
▁ex	-8.47599
X	-8.47847
om	-8.47887
▁as▁well▁as	-8.48169
uck	-8.4825
▁small	-8.48312
▁Lo	-8.48633
ative	-8.48752
▁email	-8.48845
▁become	-8.49057
log	-8.49178
▁event	-8.49362
time	-8.49463
ip	-8.49475
s▁were	-8.49579
ca	-8.49773
▁to▁a	-8.49777
mb	-8.498
▁include	-8.4998
▁public	-8.50209
ran	-8.50212
nd	-8.50929
▁million	-8.51147
▁I▁have	-8.51465
les	-8.51578
▁point	-8.51735
▁share	-8.51976
▁second	-8.52113
ing▁and	-8.52238
▁care	-8.52303
▁all▁the	-8.52396
▁together	-8.52442
by	-8.52446
ck	-8.52488
▁it▁was	-8.52623
▁again	-8.5264
ized	-8.52705
amp	-8.52768
▁health	-8.5278
ash	-8.52846
▁Ho	-8.52952
▁real	-8.52977
▁order	-8.53214
▁close	-8.53342
_	-8.53578
▁provide	-8.53681
▁case	-8.53712
▁thing	-8.53786
."
	-8.53823
▁have▁a	-8.53948
ah	-8.53998
tain	-8.54197
▁University	-8.54217
ise	-8.54269
ize	-8.5428
ug	-8.54385
cent	-8.54429
ight	-8.54672
ke	-8.54673
ign	-8.54772
▁let	-8.55054
da	-8.55081
▁add	-8.55171
▁month	-8.55198
▁a▁new	-8.55277
ions	-8.55445
▁next	-8.55537
(	-8.55721
▁power	-8.5611
▁person	-8.56136
rain	-8.56217
▁record	-8.56284
d▁by	-8.56309
di	-8.56359
oo	-8.5667
▁bo	-8.56716
side	-8.56827
lin	-8.56918
▁did	-8.57107
He	-8.57112
▁follow	-8.5716
▁pay	-8.5719
▁short	-8.57215
ach	-8.57354
▁Ch	-8.57357
mi	-8.57761
ability	-8.57961
▁is▁not	-8.58067
▁products	-8.58126
▁I▁was	-8.58638
iv	-8.58699
▁fun	-8.58783
To	-8.58873
▁I▁am	-8.58903
▁four	-8.59235
▁world	-8.59266
ley	-8.59458
▁about▁the	-8.59495
po	-8.59507
form	-8.59675
▁With	-8.59737
▁money	-8.59836
▁control	-8.59847
ron	-8.5987
do	-8.59929
▁say	-8.60006
.▁“	-8.60073
▁week	-8.6011
▁to▁make	-8.60116
led	-8.60163
wa	-8.60234
▁top	-8.60433
▁Cl	-8.60477
▁house	-8.60555
▁says	-8.60563
▁professional	-8.60588
s▁of▁the	-8.60855
▁|	-8.61026
AN	-8.61154
tro	-8.61175
▁Ha	-8.61294
red	-8.61369
▁got	-8.61602
▁New	-8.61642
ever	-8.61827
▁why	-8.62052
▁return	-8.62273
gan	-8.6232
▁please	-8.62413
ed▁with	-8.62443
ome	-8.62561
—	-8.62682
▁quality	-8.62722
▁Po	-8.62783
tra	-8.62947
▁keep	-8.63037
▁If	-8.6325
oc	-8.63494
ward	-8.63636
ace	-8.63737
▁space	-8.63778
▁color	-8.63822
▁account	-8.63835
▁Car	-8.63874
▁review	-8.63901
▁story	-8.64022
▁Dr	-8.64042
ER	-8.64156
▁check	-8.64205
...
	-8.64239
▁left	-8.64291
ock	-8.64547
▁test	-8.64576
▁en	-8.64618
▁having	-8.64777
▁needs	-8.64939
▁as▁the	-8.65072
rs	-8.65107
ave	-8.65279
▁below	-8.65288
ations	-8.65312
▁art	-8.65452
▁of▁our	-8.65628
ba	-8.65628
▁turn	-8.6566
▁sure	-8.65676
▁understand	-8.658
bi	-8.66114
atch	-8.66189
ries	-8.66194
ism	-8.66207
▁Sh	-8.66241
tu	-8.66276
▁American	-8.66305
▁face	-8.66841
▁during	-8.66934
▁Ba	-8.67025
▁US	-8.67166
ound	-8.67204
ities	-8.67219
▁That	-8.67397
▁to▁do	-8.67502
▁must	-8.67707
▁Ca	-8.67842
ens	-8.67858
▁believe	-8.68241
ors	-8.6828
▁hope	-8.68283
▁link	-8.68296
▁Di	-8.68373
▁already	-8.68501
▁Ex	-8.68549
▁non	-8.68561
▁contact	-8.68579
▁they▁are	-8.68614
▁reason	-8.68699
fi	-8.6884
▁getting	-8.69078
▁law	-8.69082
▁you▁are	-8.69108
▁would▁be	-8.69237
mp	-8.69374
ther	-8.69478
ka	-8.69601
▁ma	-8.69675
▁of▁your	-8.69768
▁di	-8.69806
▁might	-8.69973
▁seem	-8.70056
▁the▁most	-8.70092
▁often	-8.70478
▁several	-8.70519
▁la	-8.70525
▁Vi	-8.70527
ev	-8.70625
▁up▁to	-8.70831
▁done	-8.7084
av	-8.71123
tor	-8.71159
▁film	-8.71445
▁store	-8.71625
▁ever	-8.71626
▁Su	-8.71747
ray	-8.71863
▁Pa	-8.72142
▁part	-8.72185
▁old	-8.72195
ew	-8.72254
▁It▁is	-8.72418
ator	-8.72505
▁minutes	-8.72507
ier	-8.72932
▁bring	-8.72997
▁list	-8.73217
▁If▁you	-8.73262
What	-8.73352
St	-8.73478
ny	-8.73493
▁ho	-8.73517
row	-8.73545
▁to▁see	-8.73548
▁du	-8.73766
▁tell	-8.73775
▁won	-8.73843
▁need▁to	-8.7392
▁value	-8.73987
act	-8.7414
▁building	-8.74154
ey	-8.7427
ath	-8.74447
▁women	-8.74453
▁My	-8.74575
▁May	-8.74578
▁key	-8.74622
ger	-8.74634
mber	-8.75034
mer	-8.75184
▁against	-8.75242
▁El	-8.75291
▁step	-8.75314
▁body	-8.75605
▁inter	-8.75813
▁Mi	-8.75837
▁cost	-8.75854
ition	-8.75872
lic	-8.75995
▁future	-8.76157
▁bar	-8.76176
You	-8.76332
▁working	-8.76334
▁When	-8.7634
▁file	-8.76455
▁travel	-8.76466
▁industry	-8.76576
▁makes	-8.76609
ai	-8.76758
▁On	-8.76797
▁hours	-8.77154
▁development	-8.77236
]	-8.77243
ler	-8.7735
▁lead	-8.77399
▁major	-8.77548
▁size	-8.77563
qui	-8.77684
cal	-8.77789
▁members	-8.7782
).
	-8.77856
OR	-8.77864
▁young	-8.7796
▁little	-8.78077
▁that▁is	-8.78126
ep	-8.78165
IN	-8.78209
RE	-8.7833
▁card	-8.78342
▁Sp	-8.78363
▁Our	-8.78534
▁number	-8.78546
air	-8.78709
▁give	-8.78855
▁State	-8.7886
▁government	-8.78871
AR	-8.7909
▁What	-8.79115
▁clear	-8.79483
s▁have	-8.79648
▁stay	-8.79676
▁called	-8.79698
▁content	-8.79895
▁and▁I	-8.80058
▁you▁have	-8.80167
ec	-8.80285
▁over▁the	-8.80377
▁walk	-8.80469
▁of▁this	-8.80606
▁may▁be	-8.80619
▁office	-8.8111
▁model	-8.8113
▁cut	-8.8119
*	-8.81212
▁came	-8.81287
▁consider	-8.81347
ON	-8.81386
So	-8.81406
ible	-8.81515
▁hold	-8.8179
▁cause	-8.81799
▁search	-8.8183
▁started	-8.81835
▁Li	-8.81945
▁Or	-8.82029
ious	-8.8208
ail	-8.82121
ook	-8.82232
▁a▁great	-8.82257
▁City	-8.82312
bu	-8.82349
que	-8.82548
▁buy	-8.82751
▁brand	-8.83034
▁percent	-8.83157
▁doesn	-8.83161
▁[	-8.83225
▁low	-8.83322
▁rate	-8.83357
▁five	-8.83424
unt	-8.8344
▁yet	-8.83524
▁issue	-8.8354
▁mind	-8.83552
gi	-8.83772
▁strong	-8.83777
ren	-8.83974
▁took	-8.84022
fer	-8.8403
▁X	-8.84252
▁away	-8.84386
ase	-8.84394
▁blog	-8.84403
if	-8.84484
▁remain	-8.8449
▁cover	-8.84494
▁air	-8.84515
▁fl	-8.84525
▁date	-8.84816
▁there▁are	-8.84925
▁Ne	-8.8495
▁move	-8.84964
▁going	-8.85015
▁one▁of▁the	-8.85046
▁months	-8.85114
▁child	-8.85277
www	-8.85278
▁sub	-8.85301
▁course	-8.8531
▁which▁is	-8.85403
▁doing	-8.85572
▁going▁to	-8.85684
▁war	-8.85876
▁friends	-8.86
▁and▁other	-8.86069
ade	-8.86166
ber	-8.86219
▁in▁this	-8.8624
▁problem	-8.86357
▁performance	-8.86422
▁early	-8.86458
▁interest	-8.86511
▁thought	-8.86586
▁heart	-8.86587
tal	-8.86662
▁At	-8.86928
ect	-8.87042
fe	-8.87103
▁once	-8.87261
▁/	-8.87461
light	-8.87572
▁technology	-8.87659
▁Te	-8.87742
▁such▁as	-8.8776
▁big	-8.87797
▁God	-8.87932
▁Na	-8.8802
▁out▁of	-8.8804
▁does	-8.88079
▁perfect	-8.88084
▁means	-8.88192
▁possible	-8.88216
▁leave	-8.88307
▁learn	-8.8847
▁hit	-8.8849
▁Ta	-8.88527
▁for▁your	-8.88578
use	-8.88598
ium	-8.88609
As	-8.88638
▁we▁are	-8.8869
▁purchase	-8.88739
▁Man	-8.88775
uc	-8.88793
When	-8.88846
▁beautiful	-8.88919
▁character	-8.89031
▁pick	-8.89075
▁through▁the	-8.89175
▁went	-8.89278
▁large	-8.89329
▁customers	-8.89371
▁told	-8.89793
▁deal	-8.89881
▁article	-8.90125
ix	-8.9015
▁able▁to	-8.90202
ven	-8.90265
▁win	-8.90336
▁These	-8.90373
▁offers	-8.90411
▁current	-8.9045
ES	-8.90677
▁has▁a	-8.90691
of	-8.90722
▁Qu	-8.90793
ult	-8.90965
▁everything	-8.9109
ham	-8.91121
://	-8.91258
:
-	-8.9129
▁style	-8.91708
▁charge	-8.91757
▁reach	-8.91798
▁result	-8.91815
year	-8.91875
▁Bar	-8.9198
▁present	-8.91993
.”	-8.92013
▁ask	-8.92092
ction	-8.92127
ney	-8.92144
▁features	-8.92162
▁You▁can	-8.92169
▁within	-8.92186
▁#	-8.92188
▁Your	-8.92222
▁simple	-8.9229
▁phone	-8.92408
▁receive	-8.92425
▁actually	-8.92522
▁easy	-8.92606
▁companies	-8.92703
▁half	-8.92718
▁is▁an	-8.92734
▁practice	-8.92756
▁stand	-8.92844
▁Mon	-8.92864
▁Ad	-8.92976
▁happen	-8.93027
▁field	-8.9306
rap	-8.93111
▁study	-8.93128
for	-8.93155
han	-8.93159
den	-8.93199
▁tax	-8.93261
▁in▁your	-8.93363
mail	-8.93483
ov	-8.93531
▁address	-8.93548
▁a▁lot▁of	-8.93766
▁complete	-8.93793
▁far	-8.94206
▁Center	-8.94226
▁added	-8.94288
gen	-8.94354
ric	-8.94482
And	-8.9451
▁should▁be	-8.94601
▁Un	-8.94607
▁Com	-8.94699
▁fast	-8.94892
Our	-8.9491
▁recommend	-8.94915
ax	-8.94957
ple	-8.94997
▁later	-8.95087
▁girl	-8.95132
▁staff	-8.95145
▁taking	-8.95193
▁talk	-8.95267
If▁you	-8.95326
▁Har	-8.95378
▁training	-8.95397
▁rest	-8.95407
ory	-8.95462
▁Can	-8.95482
▁we▁have	-8.95593
On	-8.95629
fa	-8.95678
▁organization	-8.95692
▁unique	-8.95707
▁fire	-8.95796
▁Not	-8.9598
▁action	-8.96071
▁trans	-8.96102
▁times	-8.96181
lar	-8.96198
▁Park	-8.96202
eep	-8.96276
▁sound	-8.96314
▁human	-8.965
j	-8.967
@	-8.96701
ed▁by▁the	-8.96732
▁term	-8.96773
▁paper	-8.96854
gg	-8.96947
▁deliver	-8.97038
▁class	-8.97092
ture	-8.97094
▁to▁your	-8.97204
▁a▁good	-8.97242
lan	-8.97314
▁print	-8.97363
▁total	-8.97365
▁official	-8.97383
▁one▁of	-8.97383
▁contain	-8.97487
▁own	-8.97588
net	-8.97678
▁network	-8.9768
▁track	-8.97731
▁to▁have	-8.97736
▁mean	-8.97799
▁to▁help	-8.97884
▁natural	-8.97929
▁someone	-8.97947
▁standard	-8.97978
ame	-8.98002
▁seen	-8.98044
▁everyone	-8.98129
▁games	-8.98181
▁at▁a	-8.98205
▁questions	-8.98288
day	-8.98359
▁host	-8.98419
vo	-8.98477
ual	-8.9848
▁appear	-8.98499
ments	-8.98602
▁cook	-8.98827
▁Sa	-8.9886
ze	-8.9888
▁Art	-8.99021
▁do▁not	-8.99138
▁web	-8.99204
org	-8.99209
ral	-8.99367
▁County	-8.99436
▁feature	-8.99446
▁Day	-8.99562
▁ca	-8.9966
▁break	-8.99693
sp	-8.99778
og	-8.99799
▁increase	-8.99856
▁require	-8.99918
▁National	-8.99956
▁question	-8.99975
▁location	-9.00039
▁tr	-9.00081
tin	-9.00117
Ch	-9.00127
=	-9.00212
▁Ja	-9.00358
▁fit	-9.00521
ology	-9.00523
over	-9.00553
▁role	-9.00595
▁create	-9.00602
▁idea	-9.0061
But	-9.00653
▁management	-9.00722
▁position	-9.00763
br	-9.00839
▁safe	-9.00865
ox	-9.0098
▁Go	-9.00983
▁a▁little	-9.01032
IS	-9.01059
vel	-9.01105
▁author	-9.01107
und	-9.0113
▁didn	-9.01131
bb	-9.01234
vent	-9.01246
ore	-9.01271
▁build	-9.01283
▁wait	-9.01289
ough	-9.01294
▁clean	-9.01506
cycl	-9.0169
▁Pre	-9.0178
▁movie	-9.01902
▁decision	-9.01909
▁age	-9.01937
▁click	-9.01966
▁given	-9.01988
▁table	-9.02036
▁stop	-9.0208
▁War	-9.02193
▁above	-9.02227
▁try	-9.0231
▁during▁the	-9.02384
▁answer	-9.02405
▁white	-9.02521
har	-9.02525
ute	-9.02554
kin	-9.02581
▁engine	-9.02608
▁six	-9.02625
ift	-9.02646
▁way▁to	-9.0266
work	-9.02695
▁that▁you	-9.0275
ff	-9.02808
ender	-9.02897
▁super	-9.02934
▁fall	-9.02934
▁among	-9.02994
▁match	-9.0301
▁matter	-9.03133
gr	-9.03179
▁protect	-9.03182
▁se	-9.03284
.▁"	-9.03301
▁En	-9.03352
▁x	-9.03459
▁history	-9.03704
Z	-9.03738
▁Ka	-9.03809
▁further	-9.03835
▁though	-9.03847
app	-9.03851
press	-9.0386
▁Ar	-9.0393
▁enough	-9.03936
▁source	-9.04012
▁One	-9.04303
s▁like	-9.04319
▁provides	-9.04354
▁such	-9.04355
▁energy	-9.04371
ED	-9.04374
No	-9.04558
gar	-9.04578
▁World	-9.04579
An	-9.04602
ull	-9.04617
▁for▁you	-9.04679
let	-9.04801
▁risk	-9.04817
nt	-9.04836
▁treatment	-9.04857
▁black	-9.04862
▁However	-9.04886
▁challenge	-9.04947
▁bi	-9.0516
set	-9.05247
▁meeting	-9.05376
hy	-9.05401
▁you▁will	-9.05525
▁star	-9.05549
▁I▁can	-9.05705
▁perform	-9.05728
▁function	-9.05744
▁ad	-9.05749
▁This▁is	-9.05805
▁pass	-9.05915
▁skin	-9.05952
▁sl	-9.05961
▁effort	-9.06161
▁results	-9.06169
▁miss	-9.06196
oth	-9.06303
▁social	-9.06491
▁watch	-9.06663
▁Col	-9.06802
ify	-9.06829
▁was▁a	-9.06886
▁less	-9.06921
▁coming	-9.07057
▁sa	-9.07157
mark	-9.0719
▁property	-9.07334
▁sw	-9.07431
▁men	-9.07493
ping	-9.07521
▁John	-9.0754
▁anything	-9.0754
▁effect	-9.07567
ef	-9.07603
▁choice	-9.07631
ient	-9.07699
▁--	-9.07732
▁ten	-9.0775
▁issues	-9.07775
▁various	-9.07902
▁series	-9.07918
rr	-9.07954
▁South	-9.07969
▁popular	-9.08041
▁Cha	-9.0806
▁drive	-9.08066
▁New▁York	-9.08174
▁http	-9.08237
eg	-9.08253
▁details	-9.08327
serv	-9.08444
▁living	-9.08568
pl	-9.08634
uff	-9.08733
▁allow	-9.0883
Q	-9.08898
str	-9.08932
▁the▁world	-9.08985
ped	-9.09007
▁whether	-9.09079
ja	-9.09089
▁country	-9.09372
▁release	-9.09651
▁from▁a	-9.09701
aw	-9.09787
▁moment	-9.09813
▁near	-9.09841
▁access	-9.09852
▁vi	-9.10078
ike	-9.10087
fin	-9.10102
▁oil	-9.1017
▁land	-9.10247
▁and▁then	-9.10283
part	-9.10377
▁specific	-9.10407
▁effective	-9.10515
ong	-9.10776
▁few	-9.10827
▁how▁to	-9.10836
+	-9.10837
▁School	-9.10887
–	-9.10958
rac	-9.10973
nic	-9.11159
▁plant	-9.11209
▁individual	-9.11279
cl	-9.11504
▁potential	-9.11506
▁claim	-9.11527
istic	-9.11573
cor	-9.1169
pm	-9.11704
ina	-9.11731
▁partner	-9.11852
▁Ph	-9.11853
▁common	-9.12005
lor	-9.12058
val	-9.12106
▁save	-9.12155
▁After	-9.12228
pt	-9.12246
▁comes	-9.12274
▁Will	-9.12294
▁at▁least	-9.12425
▁North	-9.12507
▁owner	-9.12508
▁taken	-9.12641
▁required	-9.1268
▁includes	-9.12688
▁Gu	-9.12691
▁third	-9.12724
▁relationship	-9.12876
▁bad	-9.12907
▁currently	-9.13004
▁friend	-9.13011
▁document	-9.13014
Thank	-9.13079
▁looking	-9.13099
▁choose	-9.13122
▁the▁right	-9.13124
With	-9.13213
▁quite	-9.1326
▁period	-9.13415
▁grow	-9.13437
▁March	-9.13447
▁single	-9.13479
pro	-9.13696
▁almost	-9.13773
▁yourself	-9.13795
▁board	-9.13798
▁approach	-9.13826
▁pretty	-9.13863
ural	-9.13875
▁financial	-9.13956
▁this▁is	-9.1396
iz	-9.14004
▁especially	-9.1411
▁Per	-9.14132
▁base	-9.14163
mit	-9.14166
pp	-9.1427
▁on▁your	-9.14312
wi	-9.14319
▁Gra	-9.14354
▁summer	-9.1436
ker	-9.14596
▁region	-9.14623
nn	-9.14672
▁attend	-9.14687
▁cur	-9.14708
▁join	-9.14756
▁via	-9.14817
▁based▁on	-9.14952
▁send	-9.14972
▁road	-9.15214
▁door	-9.15236
▁vehicle	-9.15296
ana	-9.15502
▁either	-9.15508
▁according▁to	-9.15605
vis	-9.15724
AL	-9.15766
▁needed	-9.15811
put	-9.15908
ified	-9.15969
▁goal	-9.15976
▁center	-9.15978
▁mar	-9.1602
▁box	-9.16099
▁environment	-9.16108
ft	-9.16133
▁held	-9.16188
▁artist	-9.16201
All	-9.1628
▁to▁find	-9.16285
▁self	-9.16325
▁impact	-9.16399
▁June	-9.16407
▁happy	-9.16422
▁imp	-9.16466
ark	-9.16605
▁West	-9.16617
▁concern	-9.16672
▁example	-9.16708
▁cl	-9.16836
▁screen	-9.16838
ky	-9.16922
▁main	-9.16948
AS	-9.16963
off	-9.17003
▁events	-9.17118
▁this▁year	-9.17181
▁court	-9.17217
▁kids	-9.1729
ban	-9.17296
▁we▁can	-9.17297
▁draw	-9.17378
▁trip	-9.17472
▁recent	-9.17531
▁begin	-9.17583
▁hair	-9.17635
▁Ju	-9.17638
▁application	-9.17718
az	-9.17728
$	-9.17805
▁count	-9.17807
spect	-9.17848
▁download	-9.17859
▁career	-9.17871
▁behind	-9.17907
cr	-9.17921
▁...	-9.17941
cur	-9.17942
,▁“	-9.18026
AC	-9.18094
▁note	-9.18095
umb	-9.18098
rant	-9.18147
▁into▁a	-9.182
gra	-9.18246
▁reading	-9.18447
ization	-9.18456
▁software	-9.18533
Co	-9.1862
▁city	-9.18682
▁fund	-9.1876
▁recently	-9.18896
▁hot	-9.1896
▁points	-9.19025
▁red	-9.19085
▁due▁to	-9.19198
▁na	-9.19217
▁when▁you	-9.19273
▁provided	-9.19591
▁fresh	-9.19651
pic	-9.19684
▁extra	-9.19749
▁part▁of	-9.19775
▁Tra	-9.19797
▁Che	-9.19889
▁wide	-9.19904
▁method	-9.19932
▁morning	-9.1994
▁Health	-9.19943
bl	-9.2001
IC	-9.20044
▁additional	-9.20098
▁others	-9.20101
▁to▁take	-9.20177
▁touch	-9.2018
▁nice	-9.20204
▁dog	-9.20259
▁running	-9.20283
AT	-9.20292
like	-9.20366
ct	-9.20387
▁he▁was	-9.20452
book	-9.20463
)
-	-9.20463
▁success	-9.2049
▁Ga	-9.20533
▁deep	-9.20551
▁but▁it	-9.20708
my	-9.20709
win	-9.20713
▁created	-9.20729
▁private	-9.20766
De	-9.20868
yn	-9.20908
▁April	-9.20935
▁collection	-9.21017
ib	-9.21045
▁fo	-9.21084
▁inside	-9.21088
▁education	-9.21122
▁late	-9.21186
▁weeks	-9.21194
van	-9.21196
her	-9.21235
▁tour	-9.21275
▁message	-9.21305
▁received	-9.21338
▁else	-9.21499
back	-9.21524
ation▁of	-9.21572
▁outside	-9.21724
▁song	-9.21735
▁Ru	-9.2178
board	-9.21897
ob	-9.21943
▁wear	-9.2197
▁across	-9.22038
ump	-9.22051
▁regular	-9.22102
based	-9.22238
gin	-9.22271
▁security	-9.22285
▁difficult	-9.22369
▁Just	-9.22432
▁custom	-9.22471
▁enter	-9.22593
▁looking▁for	-9.22623
▁writing	-9.22634
▁international	-9.22686
▁options	-9.22697
▁party	-9.22708
ert	-9.22724
▁simply	-9.22762
▁probably	-9.22872
▁media	-9.22883
▁su	-9.23074
▁clients	-9.23083
ony	-9.23154
▁How	-9.23161
▁the▁new	-9.23168
▁Some	-9.23302
▁leader	-9.23307
▁of▁their	-9.23335
▁areas	-9.23415
▁guy	-9.23453
▁fine	-9.2356
▁heat	-9.23563
ipp	-9.23613
▁does▁not	-9.23713
▁cup	-9.23764
▁sales	-9.2379
▁title	-9.2386
low	-9.23862
▁image	-9.23875
lation	-9.23878
▁award	-9.23893
▁in▁our	-9.23918
lie	-9.23935
ST	-9.24046
▁July	-9.24119
▁successful	-9.24199
|
	-9.24206
▁Ri	-9.24207
▁House	-9.24298
▁items	-9.24386
▁gift	-9.24391
ung	-9.24417
▁likely	-9.24434
▁display	-9.24438
rate	-9.24525
▁following	-9.24531
mission	-9.24635
▁request	-9.24645
elect	-9.24666
▁cool	-9.24693
▁Home	-9.24837
▁national	-9.24846
▁cap	-9.2487
▁reduce	-9.24871
▁number▁of	-9.24914
▁measure	-9.25013
▁unit	-9.25154
▁Free	-9.25247
▁that▁I	-9.25403
▁Wi	-9.25411
My	-9.25415
▁the▁next	-9.25445
▁firm	-9.25521
▁medical	-9.25542
ari	-9.2564
ates	-9.25655
▁Sunday	-9.25688
▁etc	-9.25764
▁Par	-9.25873
▁front	-9.2594
▁Star	-9.25975
▁users	-9.25979
rop	-9.2604
▁code	-9.26104
▁a▁bit	-9.26105
du	-9.26177
▁mix	-9.26197
cha	-9.26208
ble	-9.2628
▁student	-9.26282
▁score	-9.26332
▁computer	-9.26379
▁manage	-9.26386
▁trade	-9.26397
▁skills	-9.26432
ose	-9.26536
▁serve	-9.26547
▁players	-9.2655
▁ground	-9.26584
▁asked	-9.26632
If	-9.26837
▁that▁it	-9.26858
▁I▁think	-9.26891
▁knowledge	-9.26904
ville	-9.26949
▁production	-9.27041
▁Time	-9.27052
hop	-9.27172
▁learning	-9.27175
▁Inc	-9.27222
▁rule	-9.27236
▁however	-9.27349
pi	-9.27392
ole	-9.27447
▁some▁of▁the	-9.27465
▁auto	-9.27546
Th	-9.27593
▁anyone	-9.27685
▁shop	-9.27787
ware	-9.27856
▁floor	-9.27931
▁news	-9.27973
ane	-9.2799
▁original	-9.27993
▁contract	-9.28007
▁activities	-9.28034
▁His	-9.28078
▁but▁the	-9.28423
ants	-9.28482
▁operation	-9.28523
▁ball	-9.2857
lit	-9.28612
lip	-9.28629
▁accept	-9.28648
é	-9.28701
▁option	-9.28831
af	-9.28862
▁achieve	-9.28882
>	-9.28918
ency	-9.28935
▁significant	-9.29032
▁Du	-9.29088
▁represent	-9.29124
len	-9.29184
▁assist	-9.29393
▁included	-9.29506
▁meet	-9.29519
▁growth	-9.29554
▁update	-9.2958
▁Monday	-9.29637
▁treat	-9.29674
t▁have	-9.29723
IT	-9.2979
▁spot	-9.29862
▁sun	-9.2989
LE	-9.29911
▁similar	-9.29927
▁discover	-9.29957
▁UK	-9.29966
▁stock	-9.2998
▁Now	-9.30029
▁bank	-9.30049
▁former	-9.30074
late	-9.30222
▁force	-9.30224
▁prevent	-9.30238
▁expect	-9.3052
▁comment	-9.30526
▁of▁these	-9.3058
▁Je	-9.30638
▁Mu	-9.30683
ense	-9.3069
▁met	-9.30701
▁improve	-9.30722
itch	-9.30778
▁schedule	-9.30791
▁Ed	-9.30813
At	-9.30817
▁to▁keep	-9.30824
rid	-9.30867
▁could▁be	-9.30911
▁finish	-9.30994
▁Please	-9.31004

•	-9.31071
▁problems	-9.31188
▁worth	-9.31305
▁I▁had	-9.31328
▁trying▁to	-9.31353
▁and▁we	-9.31409
▁as▁well	-9.31421
▁town	-9.31534
▁soon	-9.31646
za	-9.31751
▁fight	-9.31874
▁photo	-9.3189
▁material	-9.31978
▁fill	-9.32031
s▁that▁are	-9.32042
▁director	-9.32056
▁expert	-9.32097
▁write	-9.32102
▁TV	-9.32103
▁chance	-9.32146
▁piece	-9.32172
▁Of	-9.32179
duct	-9.32406
▁vote	-9.32411
Pro	-9.3243
▁police	-9.32483
▁takes	-9.32674
▁High	-9.32676
▁green	-9.32732
▁machine	-9.32792
▁user	-9.32839
par	-9.32871
▁general	-9.32961
▁in▁their	-9.32994
iff	-9.33024
▁situation	-9.33056
ank	-9.33081
▁Black	-9.33087
▁mark	-9.3324
▁true	-9.3327
▁round	-9.33304
▁back▁to	-9.33318
▁text	-9.33365
▁death	-9.33463
med	-9.33488
▁are▁not	-9.33533
▁am	-9.33547
▁playing	-9.33595
ica	-9.33608
▁whole	-9.33646
▁Office	-9.33687
US	-9.33694
ists	-9.3386
cer	-9.33865
▁with▁your	-9.33924
lay	-9.33938
▁wall	-9.33947
car	-9.33954
▁of▁my	-9.34011
▁platform	-9.34202
bit	-9.34218
▁works	-9.34226
▁maintain	-9.34248
▁discuss	-9.34264
▁train	-9.34333
▁Bri	-9.3437
▁global	-9.34391
▁in▁my	-9.34408
night	-9.34429
▁usually	-9.34432
ration	-9.34446
▁suit	-9.34488
OS	-9.34492
▁version	-9.34493
▁of▁his	-9.34497
▁shot	-9.34563
▁loss	-9.346
dic	-9.34608
EN	-9.34642
How	-9.34769
view	-9.34785
ush	-9.34845
get	-9.34914
▁Mr	-9.34915
example	-9.34929
▁earn	-9.34959
▁fr	-9.34971
▁factor	-9.3501
▁kind▁of	-9.3504
▁block	-9.35062
▁Min	-9.35127
▁subject	-9.35248
▁pain	-9.35275
cul	-9.35302
▁amazing	-9.35353
▁to▁go	-9.35388
ification	-9.35458
▁Win	-9.35489
▁October	-9.35491
▁There	-9.35563
There	-9.35567
▁January	-9.35578
▁had▁a	-9.35584
▁suggest	-9.35608
▁wish	-9.35653
▁Street	-9.35698
▁I▁don	-9.35726
▁Comp	-9.35764
▁providing	-9.35766
▁Mc	-9.35817
▁App	-9.35852
▁is▁also	-9.35903
vision	-9.35954
▁quickly	-9.36009
▁fact	-9.36074
▁anti	-9.36074
▁sell	-9.36078
▁built	-9.36123
▁Pri	-9.36161
▁collect	-9.36166
oke	-9.36218
▁leading	-9.36221
▁to▁use	-9.3624
▁remember	-9.36245
▁September	-9.36331
▁nothing	-9.36336
▁guide	-9.36477
▁Sal	-9.36607
▁act	-9.36613
Ma	-9.36674
read	-9.37033
&	-9.37048
▁words	-9.37097
▁Am	-9.37115
▁Up	-9.37162
acy	-9.37188
▁direct	-9.37192
▁on▁this	-9.3721
fect	-9.37217
▁dec	-9.37304
▁word	-9.37341
▁member	-9.37368
▁Dis	-9.37409
tan	-9.37418
▁digital	-9.37434
▁eye	-9.37484
▁safety	-9.37487
nch	-9.37607
▁develop	-9.37616
▁cell	-9.37628
▁prior	-9.37651
▁weekend	-9.37805
▁August	-9.37938
▁Her	-9.37958
▁that▁we	-9.37985
▁legal	-9.38168
Please	-9.38254
▁band	-9.38282
▁Facebook	-9.38339
▁time▁to	-9.38425
▁affect	-9.38535
▁explain	-9.38575
lock	-9.3858
▁multi	-9.38786
ably	-9.38834
▁+	-9.38845
▁Wal	-9.38948
cess	-9.38961
▁customer	-9.38969
▁Da	-9.38975
fo	-9.38976
▁and▁more	-9.38994
ging	-9.39005
▁apply	-9.39059
ery	-9.39083
."	-9.39097
▁By	-9.39154
ette	-9.39166
▁Group	-9.39188
▁picture	-9.39252
▁easily	-9.39272
tri	-9.39299
yard	-9.39335
▁degree	-9.39398
▁photograph	-9.39423
▁final	-9.39449
▁purpose	-9.39455
eck	-9.39469
▁certain	-9.39548
▁coach	-9.39623
TH	-9.39857
▁It▁was	-9.39992
▁condition	-9.40003
own	-9.40051
rent	-9.40113
▁along▁with	-9.40207
ject	-9.40215
▁Lu	-9.40348
▁solution	-9.40355
field	-9.4045
▁Google	-9.40458
▁attack	-9.40511
▁kind	-9.40525
▁known	-9.40538
ING	-9.40545
rus	-9.40558
▁Act	-9.40572
truction	-9.40598
ific	-9.40638
▁stage	-9.40708
▁damage	-9.40745
▁marketing	-9.40818
▁International	-9.40825
▁Don	-9.40831
▁couple	-9.40867
house	-9.40919
▁after▁the	-9.40921
▁with▁an	-9.41045
hu	-9.41129
▁speak	-9.41201
▁Work	-9.41218
▁credit	-9.41247
▁setting	-9.41271
▁warm	-9.41275
cu	-9.41275
▁President	-9.41333
▁campaign	-9.4137
▁weight	-9.4142
▁remove	-9.41431
▁America	-9.41446
ement	-9.4152
▁but▁I	-9.41527
▁em	-9.41595
▁Here	-9.41601
▁East	-9.41645
▁released	-9.41709
▁Pla	-9.41755
RO	-9.41768
▁November	-9.41846
AP	-9.41903
▁exp	-9.41931
▁rep	-9.41958
▁Friday	-9.41969
Why	-9.41971
▁Ki	-9.42134
▁focus	-9.42177
▁lost	-9.42178
mate	-9.42183
▁daily	-9.42262
▁section	-9.42328
s▁such▁as	-9.42363
▁gain	-9.42391
▁race	-9.42405
▁drink	-9.42548
▁session	-9.42556
ko	-9.42674
▁sent	-9.42708
▁announced	-9.42774
ya	-9.42828
▁cat	-9.42891
rd	-9.42936
▁for▁this	-9.43008
▁saw	-9.43072
▁access▁to	-9.4312
place	-9.4318
rum	-9.43181
▁hotel	-9.43273
▁statement	-9.43336
After	-9.43365
▁average	-9.43368
▁feeling	-9.4338
▁cannot	-9.43415
▁to▁create	-9.43438
▁fish	-9.43491
ising	-9.43595
▁the▁way	-9.43626
▁More	-9.43674
qua	-9.43683
▁fix	-9.43871
MA	-9.43887
hor	-9.43896
▁tree	-9.43915
▁mobile	-9.44031
body	-9.44034
▁Red	-9.44077
ich	-9.44135
▁Cor	-9.44181
spir	-9.44252
▁wood	-9.44285
iti	-9.44304
▁lives	-9.4438
▁club	-9.44399
Con	-9.44405
▁higher	-9.44418
▁of▁all	-9.44461
ed▁out	-9.44476
▁sale	-9.44556
ford	-9.44672
▁look▁at	-9.44716
▁Even	-9.44751
east	-9.44777
▁ago	-9.44853
room	-9.44868
eek	-9.44911
▁target	-9.44948
▁modern	-9.44979
▁the▁following	-9.45024
cle	-9.45049
UR	-9.45059
▁Bi	-9.45157
▁Pe	-9.45158
▁the▁last	-9.45163
▁item	-9.45265
▁reported	-9.45341
ature	-9.45376
Be	-9.45381
▁equipment	-9.45444
▁connect	-9.45481
▁College	-9.45483
cord	-9.45494
where	-9.455
▁News	-9.45517
▁part▁of▁the	-9.45591
ju	-9.45624
▁mother	-9.45627
▁window	-9.45635
▁type	-9.45675
well	-9.45678
pon	-9.45712
▁£	-9.45736
ET	-9.45829
▁around▁the	-9.45842
▁figure	-9.45885
▁woman	-9.45917
▁changes	-9.45966
iber	-9.46024
▁im	-9.46099
▁boy	-9.46099
▁arm	-9.46112
▁your▁own	-9.46152
▁Thursday	-9.4616
▁projects	-9.46205
▁December	-9.46335
▁Service	-9.46543
▁goes	-9.46591
▁opportunity	-9.46608
▁restaurant	-9.46657
▁insurance	-9.46689
aff	-9.46721
▁There▁are	-9.46768
▁serious	-9.46805
▁parents	-9.46808
now	-9.46926
Last	-9.46945
mar	-9.46958
yl	-9.46979
men	-9.46997
▁London	-9.47072
▁Pi	-9.47086
▁payment	-9.47093
▁Tuesday	-9.47094
▁when▁the	-9.47112
▁lower	-9.47124
▁worked	-9.47177
▁quick	-9.47246
▁bag	-9.4728
▁difference	-9.47323
▁investment	-9.47357
▁sex	-9.47375
▁player	-9.47376
▁leg	-9.47474
▁sea	-9.47548
▁fee	-9.47555
▁policy	-9.47557
▁continue	-9.47639
▁in▁an	-9.47654
▁photos	-9.47694
▁shows	-9.47802
▁there▁is	-9.47805
▁hour	-9.47842
▁must▁be	-9.47937
▁demand	-9.48031
▁that▁he	-9.48039
▁basic	-9.48075
▁San	-9.48076
▁language	-9.48126
▁attention	-9.48139
meter	-9.48173
▁From	-9.48207
▁Bro	-9.48285
▁notice	-9.48366
ik	-9.48387
▁Mor	-9.48577
▁pet	-9.48699
vol	-9.48762
raw	-9.48866
matic	-9.48872
ux	-9.48876
▁benefits	-9.48879
izing	-9.48953
▁Tri	-9.48967
▁that▁they	-9.48997
▁myself	-9.49046
▁college	-9.49093
▁dress	-9.49113
▁Business	-9.49177
▁systems	-9.49203
Today	-9.49205
Since	-9.49274
▁books	-9.49309
profit	-9.49374
▁as▁an	-9.49377
▁Plan	-9.49409
▁offering	-9.49485
loo	-9.49503
dia	-9.49526
RA	-9.49538
▁teacher	-9.4954
▁bill	-9.49608
▁Inter	-9.49655
▁While	-9.49659
▁trust	-9.49672
▁physical	-9.49807
▁Ac	-9.49809
▁he▁said	-9.49837
▁PM	-9.49849
▁Out	-9.50007
▁Ver	-9.50009
rank	-9.50032
▁multiple	-9.50066
town	-9.50102
▁patients	-9.50173
stone	-9.50187
▁traditional	-9.50196
▁attract	-9.50252
▁speed	-9.50297
▁giving	-9.50326
▁hear	-9.50329
▁Bra	-9.50354
▁mid	-9.5036
▁Wednesday	-9.50457
▁English	-9.5049
▁particular	-9.50525
▁Post	-9.50537
▁Air	-9.50574
▁invest	-9.50619
BC	-9.50644
▁roll	-9.50681
▁sold	-9.50766
tribut	-9.50798
▁normal	-9.50811
▁decide	-9.50824
▁Law	-9.50863
▁used▁to	-9.50928
▁India	-9.50949
wood	-9.51032
New	-9.51045
▁a▁very	-9.511
▁device	-9.51121
▁foot	-9.5134
▁businesses	-9.51374
▁to▁provide	-9.51401
mor	-9.51412
imp	-9.5148
▁planning	-9.51495
▁positive	-9.51529
mod	-9.5155
▁for▁all	-9.51618
▁pack	-9.5162
▁dry	-9.51668
▁drop	-9.51748
▁driver	-9.51761
▁benefit	-9.51763
▁the▁company	-9.51778
▁ideas	-9.51892
▁animal	-9.51898
▁their▁own	-9.51899
▁flow	-9.51902
down	-9.51908
die	-9.51909
▁Green	-9.51947
TM	-9.51948
▁annual	-9.51974
▁seven	-9.51985
▁countries	-9.52064
▁strength	-9.52098
▁themselves	-9.52214
▁holiday	-9.5226
▁listen	-9.52319
▁California	-9.52442
col	-9.52449
▁letter	-9.52613
▁thank	-9.52621
unch	-9.52667
▁interview	-9.52785
▁make▁sure	-9.52795
▁express	-9.52841
PS	-9.52866
▁consult	-9.52922
ili	-9.53023
▁fair	-9.53033
▁upon	-9.53035
ball	-9.53037
▁Ti	-9.53188
▁to▁our	-9.53248
▁highly	-9.53299
▁tri	-9.53312
▁disease	-9.53334
▁avoid	-9.53367
▁written	-9.53474
▁Em	-9.53478
▁slow	-9.5348
▁response	-9.5356
unk	-9.5368
▁determine	-9.53787
▁adult	-9.53811
▁Christmas	-9.53877
▁resources	-9.53952

|	-9.53989
About	-9.5399
er▁than	-9.54123
▁disc	-9.54147
Lo	-9.54184
▁across▁the	-9.5419
not	-9.54214
chi	-9.54244
▁within▁the	-9.54289
View	-9.54458
According▁to	-9.54591
▁Director	-9.54693
▁spend	-9.54703
lon	-9.54712
▁starting	-9.54797
▁opportunities	-9.54816
▁healthy	-9.54828
rick	-9.54868
▁dream	-9.54894
▁under▁the	-9.54932
▁Design	-9.5506
▁correct	-9.55098
▁recipe	-9.55111
▁ship	-9.55125
▁programs	-9.55153
EL	-9.55262
▁forward	-9.55298
▁shape	-9.55321
▁select	-9.55381
▁published	-9.55383
▁when▁I	-9.55414
|	-9.55429
top	-9.55475
▁cross	-9.55482
▁began	-9.55553
▁scene	-9.55566
▁Ve	-9.55572
▁active	-9.55588
That	-9.55663
UN	-9.55726
▁pull	-9.55743
▁stories	-9.55765
Photo	-9.55787
▁commercial	-9.55811
▁package	-9.55828
▁baby	-9.55873
▁a▁lot	-9.55943
Learn	-9.55989
▁necessary	-9.55993
▁directly	-9.56012
PA	-9.56035
▁encourage	-9.56055
▁did▁not	-9.56104
ically	-9.56122
▁be▁able▁to	-9.56131
▁camera	-9.56223
LA	-9.56259
ing▁up	-9.56296
▁Cre	-9.56405
▁essential	-9.56486
▁gas	-9.56505
gent	-9.56569
▁interesting	-9.56703
▁Port	-9.56716
▁eat	-9.56777
▁para	-9.56859
Here	-9.56867
▁completely	-9.56896
are	-9.57042
related	-9.57069
▁Hu	-9.57082
▁economic	-9.57148
lies	-9.57205
▁gives	-9.57223
▁respect	-9.5723
▁excellent	-9.57231
▁rock	-9.57233
▁farm	-9.57291
ridge	-9.57361
▁played	-9.57396
DA	-9.57407
▁in▁order▁to	-9.57487
tract	-9.57523
▁quarter	-9.57559
EC	-9.57683
▁electric	-9.57707
▁drug	-9.57729
▁blue	-9.57744
Click	-9.57806
▁double	-9.5785
▁families	-9.5796
▁February	-9.58011
Un	-9.58089
more	-9.58125
We▁are	-9.58152
▁wine	-9.58173
▁Play	-9.58189
▁Ste	-9.5827
▁tools	-9.58323
ez	-9.58323
▁plans	-9.58365
Mo	-9.58473
▁Bu	-9.58501
▁welcome	-9.58538
Find	-9.58583
▁itself	-9.58592
rack	-9.58654
▁the▁top	-9.58729
▁entire	-9.5876
▁hospital	-9.5878
ivers	-9.58829
▁conditions	-9.58831
▁ticket	-9.58893
iction	-9.58902
▁solutions	-9.59048
▁wanted▁to	-9.59065
▁consumer	-9.59157
ned	-9.5916
▁not▁only	-9.59165
cro	-9.59286
ve▁been	-9.59308
▁like▁a	-9.59346
CH	-9.59353
▁range	-9.59372
▁element	-9.59378
vin	-9.59382
:▁“	-9.59384
▁creating	-9.59413
▁Q	-9.59417
▁soft	-9.59448
▁topic	-9.59517
▁prefer	-9.59518
▁culture	-9.59527
jo	-9.59527
▁will▁have	-9.59533
pot	-9.59594
▁a▁small	-9.59606
erry	-9.59634
▁that▁will	-9.59665
▁Pat	-9.59671
▁Use	-9.59709
▁Ab	-9.59714
▁Program	-9.5973
▁manager	-9.59739
▁stuff	-9.59777
▁park	-9.59971
▁dark	-9.6006
▁in▁his	-9.60064
▁Sch	-9.60159
can	-9.60228
▁attempt	-9.6026
▁garden	-9.6028
▁kitchen	-9.60295
▁I▁would	-9.60303
▁White	-9.60437
SE	-9.60515
Mar	-9.60547
ular	-9.6058
▁sweet	-9.60603
▁nation	-9.60613
▁growing	-9.60637
▁last▁year	-9.6076
▁gold	-9.60761
q	-9.60773
▁amount▁of	-9.60828
▁designed	-9.60853
▁saying	-9.60903
ID	-9.6111
igh	-9.61125
▁implement	-9.61279
▁tea	-9.61322
There▁are	-9.61341
Not	-9.61351
SA	-9.61373
ool	-9.61387
▁hands	-9.61467
▁David	-9.61469
▁street	-9.61495
▁employees	-9.61508
▁dead	-9.61573
▁isn	-9.61684
Ex	-9.61777
▁Saturday	-9.61793
▁wrong	-9.62029
▁so▁that	-9.62055
▁miles	-9.6208
▁billion	-9.62158
▁glass	-9.62242
▁Market	-9.62272
▁Association	-9.62306
®	-9.62308
▁blood	-9.62311
new	-9.62353
▁Year	-9.62379
▁Game	-9.6242
atter	-9.62464
▁wonderful	-9.62481
▁occur	-9.62524
▁limit	-9.62541

>	-9.62562
▁structure	-9.62577
▁those▁who	-9.62589
round	-9.62603
▁gave	-9.62739
▁fully	-9.62774
▁loan	-9.628
▁they▁were	-9.62801
▁Services	-9.62836
▁mode	-9.62838
▁for▁me	-9.62897
NA	-9.6292
▁sleep	-9.62952
▁Award	-9.62972
She	-9.63041
▁eight	-9.63047
By	-9.63161
aging	-9.63248
▁Ben	-9.63272
dent	-9.63288
hood	-9.63323
▁pan	-9.6339
ara	-9.63439
▁costs	-9.63479
▁seat	-9.63488
ll▁be	-9.63519
▁fans	-9.63537
▁Book	-9.63629
▁agree	-9.63676
IL	-9.63841
▁produce	-9.63843
▁client	-9.63869
▁materials	-9.63897
▁China	-9.63958
▁System	-9.63962
▁Super	-9.63974
▁Trans	-9.64018
▁button	-9.64073
▁handle	-9.64084
▁became	-9.6409
cho	-9.6411
▁First	-9.64145
▁press	-9.64186
ged	-9.64204
▁reveal	-9.64245
▁tool	-9.64297
▁spent	-9.64329
▁repair	-9.6434
fu	-9.64359
▁conduct	-9.6451
▁complex	-9.64521
▁wedding	-9.6454
If▁you▁are	-9.64568
▁Twitter	-9.64696
▁thinking	-9.64766
▁provider	-9.64771
This▁is	-9.6479
▁Get	-9.64865
▁previous	-9.64964
t▁be	-9.64964
▁carry	-9.65001
▁budget	-9.65061
▁they▁have	-9.65078
▁secure	-9.65141
▁president	-9.65182
▁to▁ensure	-9.65214
▁mis	-9.6527
▁bra	-9.65289
▁so▁much	-9.65328
▁the▁latest	-9.65393
▁construction	-9.65417
MS	-9.65512
RI	-9.65525
▁paint	-9.65554
▁advice	-9.65586
▁launch	-9.65592
▁between▁the	-9.656
▁communication	-9.65691
▁helps	-9.65751
▁bit	-9.65756
▁felt	-9.65778
▁for▁their	-9.6578
ino	-9.65813
▁had▁been	-9.6603
▁fail	-9.66062
right	-9.66102
▁confirm	-9.66153
lish	-9.66171
CO	-9.66195
▁range▁of	-9.66214
how	-9.66362
▁reflect	-9.66429
▁doctor	-9.66485
▁moving	-9.66531
▁feet	-9.66568
You▁can	-9.66593
AM	-9.66734
Every	-9.66743
▁requirements	-9.66761
▁Mac	-9.66771
▁progress	-9.66774
uk	-9.66776
▁Lin	-9.66778
▁sometimes	-9.67084
▁fat	-9.67146
▁push	-9.67221
▁Let	-9.67226
▁voice	-9.67263
▁up▁with	-9.67279
▁taste	-9.67282
▁pressure	-9.67313
▁album	-9.67327
▁conference	-9.67406
▁pair	-9.67454
▁limited	-9.67474
▁path	-9.67493
▁who▁are	-9.67504
▁such▁a	-9.67538
ators	-9.67609
▁sort	-9.6765
▁surface	-9.67662
pri	-9.6769
▁lot	-9.6779
▁a▁long	-9.67798
▁task	-9.67867
burg	-9.67956
▁Road	-9.67961
▁fan	-9.68008
▁if▁the	-9.68011
▁ensure	-9.68021
▁connection	-9.68043
▁stress	-9.68102
▁map	-9.68198
▁Blue	-9.6823
▁as▁it	-9.68272
▁delivery	-9.68299
tech	-9.68352
▁We▁are	-9.68403
▁King	-9.68491
▁ride	-9.68646
▁weather	-9.68662
▁parts	-9.68679
▁pattern	-9.68692
▁heard	-9.68692
▁for▁an	-9.68828
▁can▁help	-9.68856
▁AM	-9.68862
OL	-9.68928
▁straight	-9.68975
While	-9.6903
▁towards	-9.69035
▁the▁game	-9.69037
▁Christ	-9.69123
ological	-9.6915
ational	-9.69163
▁spa	-9.69178
▁Sha	-9.69213
ending	-9.69227
▁bus	-9.69239
CE	-9.693
▁@	-9.69309
▁Indian	-9.69313
▁Web	-9.69349
stead	-9.69391
▁Canada	-9.69485
graph	-9.69489
AD	-9.69578
term	-9.69597
▁Add	-9.69599
urge	-9.69638
▁based	-9.69685
▁comments	-9.69686
▁colour	-9.69745
▁political	-9.69895
▁Council	-9.69969
▁par	-9.70025
play	-9.70063
▁brought	-9.70109
▁Ni	-9.70189
▁station	-9.70257
list	-9.70295
▁finally	-9.70322
▁throughout▁the	-9.70361
▁nearly	-9.70367
▁Va	-9.70392
▁images	-9.70431
hol	-9.70473
▁ability▁to	-9.70502
▁make▁a	-9.70506
▁favorite	-9.70556
▁install	-9.70572
Ro	-9.70576
▁Char	-9.70586
▁where▁the	-9.70617
avi	-9.70661
▁prove	-9.70669
▁Then	-9.70682
▁Washington	-9.70713
une	-9.70718
▁to▁work	-9.70718
▁wife	-9.70778
dom	-9.7078
▁Life	-9.7083
▁addition	-9.70859
▁wonder	-9.70864
▁off▁the	-9.70926
▁Well	-9.70977
Le	-9.71026

“	-9.71041
▁creative	-9.71042
▁nature	-9.71043
▁Science	-9.71062
▁Great	-9.71069
ME	-9.71076
▁enable	-9.71089
▁ob	-9.71105
▁developed	-9.71115
▁Paul	-9.71172
[	-9.71173
teen	-9.71202
fl	-9.71242
▁Wa	-9.71296
▁cases	-9.71319
▁Bur	-9.71359
ised	-9.71365
▁allows	-9.71436
▁technique	-9.71468
▁classic	-9.71571
gene	-9.717
▁goals	-9.71725
oon	-9.7177
▁Lake	-9.71814
▁years▁ago	-9.71843
▁bed	-9.71875
script	-9.71909
▁to▁be▁a	-9.71929
uch	-9.71932
▁respond	-9.72061
▁Club	-9.7209
▁overall	-9.72091
ani	-9.72149
▁Board	-9.72159
▁expand	-9.72191
▁arrive	-9.72414
They	-9.72517
▁located	-9.7254
▁concept	-9.72642
▁sports	-9.72666
▁of▁its	-9.72721
▁activity	-9.72793
▁suffer	-9.72805
fully	-9.72809
▁definitely	-9.72821
▁trail	-9.72858
▁pop	-9.72896
▁we▁will	-9.73031
▁Texas	-9.73043
▁Read	-9.73079
illa	-9.7308
▁largest	-9.7313
▁Gold	-9.73131
box	-9.73188
▁terr	-9.73211
rist	-9.73308
▁finding	-9.7342
▁type▁of	-9.73427
▁church	-9.73438
Contact	-9.73456
▁officer	-9.73481
▁Bank	-9.73629
It▁is	-9.73758
bar	-9.73781
vid	-9.73841
▁easy▁to	-9.73862
▁this▁week	-9.73878
▁wrote	-9.73957
struct	-9.73976
▁Also	-9.74029
Now	-9.74039
▁might▁be	-9.74199
▁Internet	-9.74201
ama	-9.74257
pat	-9.74332
IP	-9.74363
▁exactly	-9.74411
cus	-9.74414
▁ahead	-9.74565
▁explore	-9.74579
▁cash	-9.74587
NY	-9.74713
▁audience	-9.7475
▁daughter	-9.74757
Two	-9.74774
▁cold	-9.74843
These	-9.74875
▁balance	-9.75083
▁Hill	-9.75092
▁spoke	-9.75194
▁pen	-9.7529
bound	-9.75311
▁earlier	-9.75473
cel	-9.7548
▁Bre	-9.7551
▁selection	-9.75525
▁retail	-9.75575
vert	-9.75661
▁applications	-9.75677
Although	-9.75693
▁before▁the	-9.75816
key	-9.7582
:||	-9.75821
▁them▁to	-9.75827
▁THE	-9.75828
▁paid	-9.75966
▁internet	-9.7602
▁a▁large	-9.76122
▁tried	-9.76149
▁expected	-9.7626
▁pictures	-9.76281
▁Australia	-9.76291
ami	-9.76323
clude	-9.76328
▁cancer	-9.76435
▁Fo	-9.76445
▁surprise	-9.76527
ential	-9.76598
▁commit	-9.76646
▁senior	-9.76677
▁interested▁in	-9.76678
▁extend	-9.768
▁I▁love	-9.76819
▁Research	-9.76827
▁Hol	-9.76836
▁in▁which	-9.76896
▁make▁it	-9.76911
▁competition	-9.76913
▁south	-9.76965
One	-9.76983
▁science	-9.76996
▁Good	-9.77089
▁micro	-9.77096
ception	-9.77103
▁supply	-9.77115
More	-9.77154
▁trend	-9.77157

*	-9.77205
atory	-9.77231
▁opening	-9.77388
▁continue▁to	-9.77409
▁stick	-9.7746
▁camp	-9.77487
▁desire	-9.77521
Me	-9.77543
▁to▁say	-9.77547
▁Windows	-9.77557
ivity	-9.77657
▁load	-9.7767
▁talent	-9.77748
▁you▁need	-9.77776
▁ready▁to	-9.77819
llow	-9.77819
▁transfer	-9.77843
▁mission	-9.7785
ram	-9.77891
roll	-9.77959
▁kill	-9.78019
▁Apple	-9.78029
▁European	-9.78091
▁analysis	-9.7813
ttle	-9.78142
▁truly	-9.78145
▁enhance	-9.78158
▁plus	-9.78178
▁separate	-9.78203
Chris	-9.78466
From	-9.78467
▁to▁give	-9.78481
▁Public	-9.78538
ken	-9.7861
▁Over	-9.78615
bra	-9.78662
▁people▁who	-9.78718
▁considered	-9.78741
▁Most	-9.78785
▁panel	-9.78945
▁easier	-9.78967
hal	-9.7899
▁passion	-9.79046
▁Education	-9.79069
▁River	-9.79103
▁temperature	-9.79117
▁candidate	-9.79125
▁Best	-9.79138
▁Europe	-9.79151
▁the▁second	-9.79157
force	-9.79199
▁for▁our	-9.79256
▁patient	-9.79272
Do	-9.79305
▁exercise	-9.79347
▁the▁city	-9.79369
free	-9.79443
▁father	-9.79488
▁Cal	-9.79514
I▁am	-9.79515
▁guarantee	-9.79517
During	-9.7955
mat	-9.79745
▁pool	-9.79759
▁the▁United▁States	-9.7977
▁helping	-9.79816
nut	-9.79818
▁sector	-9.79863
▁will▁also	-9.79912
▁immediately	-9.79995
▁maybe	-9.80157
▁sit	-9.80168
▁individuals	-9.80195
een	-9.80235
▁journey	-9.80242
▁Ken	-9.80292
maker	-9.80358
▁wild	-9.80388
Your	-9.80469
▁Jan	-9.80498
▁cream	-9.80501
▁served	-9.80579
▁promote	-9.80641
▁decided▁to	-9.80689
▁north	-9.80709
▁ideal	-9.80732
▁spring	-9.8077
arian	-9.80844
▁fashion	-9.8087
▁as▁they	-9.80872
▁you▁need▁to	-9.80898
▁comfortable	-9.80926
▁list▁of	-9.80927
▁turned	-9.80932
▁out▁of▁the	-9.80942
▁finished	-9.80946
▁husband	-9.80994
▁protection	-9.81038
▁Care	-9.81097
▁syn	-9.81115
▁storage	-9.8114
born	-9.81235
▁coffee	-9.81247
▁eyes	-9.81273
point	-9.81417
▁chair	-9.81453
Some	-9.81495
▁Management	-9.81566
▁Cap	-9.81597
▁evening	-9.81622
▁sugar	-9.81652
▁monitor	-9.81675
rin	-9.81693
▁a▁number▁of	-9.81696
▁obtain	-9.81755
▁wind	-9.81796
▁comfort	-9.81822
▁Open	-9.81858
lab	-9.819
▁on▁my	-9.81955
▁Ko	-9.81955
▁James	-9.81988
▁the▁country	-9.82074
▁they▁can	-9.82086
▁throw	-9.82134
Li	-9.8225
▁Water	-9.82579
▁at▁all	-9.82605
▁beyond	-9.82659
Get	-9.82661
▁Bas	-9.82671
▁Island	-9.82707
CC	-9.82719
▁you▁should	-9.82761
▁loved	-9.82774
▁experienced	-9.82775
▁length	-9.82778
▁named	-9.82879
Student	-9.82888
Follow	-9.83063
TA	-9.83111
▁traffic	-9.83126
▁Company	-9.8324
▁metal	-9.83242
▁decade	-9.83249
▁a▁variety▁of	-9.83329
aries	-9.83332
▁fruit	-9.83335
▁gla	-9.83371
gram	-9.83427
▁Rock	-9.83445
▁excited	-9.8345
▁a▁big	-9.83477
▁grand	-9.83478
▁craft	-9.83513
▁spread	-9.83598
ancy	-9.83669
▁meal	-9.83682
▁on▁our	-9.83689
▁dating	-9.8372
▁Church	-9.83758
Because	-9.83765
oma	-9.83858
▁exist	-9.83946
itive	-9.84003
▁Power	-9.8407
▁himself	-9.84124
▁knew	-9.84136
long	-9.84141
▁against▁the	-9.84155
▁Show	-9.84173
▁Bill	-9.84259
▁of▁course	-9.84275
▁beach	-9.84347
▁department	-9.8436
▁driving	-9.84374
▁existing	-9.84497
▁increasing	-9.84515
▁Michael	-9.84591
▁you▁may	-9.84641
hen	-9.84644
rip	-9.84726
▁license	-9.84752
▁each▁other	-9.84882
▁master	-9.84931
ield	-9.84951
▁proud	-9.84981
▁direction	-9.84992
▁General	-9.85004
▁decor	-9.85059
lam	-9.85081
▁I▁could	-9.85087
▁movement	-9.8509
©	-9.85094
▁honor	-9.85163
▁initial	-9.8526
under	-9.85286
▁certainly	-9.85431
▁def	-9.85565
lum	-9.85569
Sh	-9.85577
▁relax	-9.85588
▁adjust	-9.85599
▁away▁from	-9.85632
▁Bay	-9.85702
▁powerful	-9.85728
▁Christian	-9.85746
▁inspire	-9.85766
nce	-9.85794
▁winner	-9.85931
▁replace	-9.85937
ulation	-9.85937
bird	-9.85949
▁Product	-9.85982
▁recognize	-9.86029
head	-9.86114
▁to▁come	-9.86123
cc	-9.86143
▁mini	-9.8617
▁you▁know	-9.86181
▁>	-9.86252
▁tips	-9.86381
▁would▁like▁to	-9.86473
▁smooth	-9.86506
▁Big	-9.86526
pre	-9.86541
▁completed	-9.86557
Pre	-9.86558
ibility	-9.86561
▁Florida	-9.86567

(	-9.86684
▁Exp	-9.86771
▁dish	-9.86777
▁Gar	-9.86797
▁technical	-9.86808
▁discussion	-9.86812
▁secret	-9.86837
RS	-9.86858
▁meaning	-9.86858
▁highlight	-9.86917
▁using▁the	-9.86919
▁occasion	-9.86922
▁federal	-9.87267
▁increased	-9.87297
▁rich	-9.87372
▁critical	-9.87414
▁Top	-9.87449
▁profile	-9.87755
▁procedure	-9.87768
▁is▁now	-9.87786
cious	-9.87808
▁helped	-9.87876
.
|	-9.87914
▁winter	-9.87923
tric	-9.87947
Ho	-9.87983
]
	-9.87993
▁shopping	-9.88016
▁motor	-9.88018
cept	-9.88029
▁Love	-9.8805
▁Nor	-9.88083
▁lock	-9.88123
▁stream	-9.88128
▁dedicated	-9.88245
▁appropriate	-9.88257
▁she▁was	-9.8838
▁Hall	-9.88383
Al	-9.88403
▁offered	-9.88438
▁background	-9.88441
MP	-9.88448
▁biggest	-9.8847
Police	-9.88608
▁devices	-9.88671
▁will▁help	-9.88787
ella	-9.88881
▁particularly	-9.88889
▁grant	-9.88893
ison	-9.88928
▁USA	-9.88963
▁go▁to	-9.88967
▁independent	-9.89038
▁amount	-9.89093
▁celebrate	-9.89094
▁opinion	-9.89108
▁beat	-9.89156
▁cast	-9.89179
▁operate	-9.89179
rup	-9.89304
▁basis	-9.89317
▁format	-9.89326
▁with▁our	-9.89355
mouth	-9.89359
▁fabric	-9.89409
▁all▁of▁the	-9.89412
▁salt	-9.8949
▁PC	-9.89491
▁catch	-9.89506
▁moved	-9.89569
▁realize	-9.8957
▁dance	-9.89684
▁allowed	-9.8973
▁Institute	-9.89747
▁changed	-9.89829
▁estimate	-9.89858
▁egg	-9.89872
life	-9.89885
▁social▁media	-9.8996
▁Mark	-9.8996
▁agent	-9.89963
▁They▁are	-9.9003
vy	-9.90036
▁try▁to	-9.90047
▁advance	-9.90056
▁alone	-9.90096
HO	-9.90115
cast	-9.90136
▁focus▁on	-9.90246
▁on▁their	-9.90253
▁I▁know	-9.90268
▁outdoor	-9.9044
PR	-9.90447
▁extremely	-9.90464
▁Music	-9.90644
▁peace	-9.9066
Price	-9.90706
▁edge	-9.90814
▁tap	-9.90824
▁Gi	-9.90851
▁capital	-9.90853
▁pieces	-9.90879
▁is▁available	-9.90889
tail	-9.90891
▁writer	-9.90933
▁types▁of	-9.90947
Download	-9.9099
▁skill	-9.91022
Engine	-9.91064
rink	-9.9113
▁volunteer	-9.91202
mond	-9.91206
▁Sun	-9.91213
rush	-9.91216
▁in▁the▁world	-9.9125
▁sha	-9.9128
▁known▁as	-9.91282
▁fear	-9.91325
▁French	-9.91361
▁Mil	-9.9142
▁corner	-9.91436
▁Community	-9.91457
▁Matt	-9.91515
etic	-9.91628
Hi	-9.91628
▁Review	-9.91634
stat	-9.91665
▁Other	-9.91715
BS	-9.91846
▁latest	-9.9186
▁looked	-9.91892
UT	-9.91908
each	-9.92003
TE	-9.92082
▁jump	-9.9225
▁Mad	-9.92265
▁brother	-9.9229
NC	-9.92295
▁advantage	-9.92419
verse	-9.92423
▁Team	-9.9247
▁Ke	-9.92475
▁generation	-9.92508
▁Child	-9.92528
▁Each	-9.92622
word	-9.92638
▁communities	-9.92666
▁because▁of	-9.92673
▁residents	-9.92686
▁Sam	-9.92687
<	-9.9273
rated	-9.92756
▁strategy	-9.92772
▁would▁have	-9.92784
!!!	-9.92856
▁posted	-9.92922
▁frame	-9.92929
▁server	-9.92935
je	-9.93019
▁along	-9.9308
ique	-9.93166
▁heavy	-9.93176
▁Mill	-9.93252
MO	-9.93425
▁Court	-9.93433
▁copy	-9.93439
▁Lab	-9.93472
ension	-9.93507
▁shared	-9.93533
▁shown	-9.93591
gate	-9.93598
▁Camp	-9.93602
▁flight	-9.93703
▁influence	-9.93761
▁brain	-9.93762
▁graduate	-9.93808
Join	-9.93924
▁accident	-9.94089
▁whose	-9.94101
Whether	-9.94124
ancing	-9.94172
If▁you▁have	-9.94297
▁gone	-9.94312
▁dollar	-9.94383
▁regarding	-9.94395
▁bright	-9.94402
▁onto	-9.94461
▁journal	-9.94465
▁solid	-9.94508
▁invite	-9.94531
▁the▁perfect	-9.94571
▁feed	-9.94784
▁income	-9.94823
▁kid	-9.94894
▁to▁play	-9.9493
:▁"	-9.95016
▁identify	-9.95072
▁shipping	-9.95078
▁a▁year	-9.95225
▁component	-9.95227
▁we▁were	-9.95329
▁the▁end▁of	-9.95329
▁mine	-9.95412
▁Men	-9.95425
▁prop	-9.95438
▁flat	-9.95448
▁gather	-9.95608
▁See	-9.95616
▁Spring	-9.95631
▁there▁was	-9.95654
▁threat	-9.95674
▁minute	-9.95684
▁British	-9.957
ache	-9.95748
LO	-9.95752
▁population	-9.95844
m▁not	-9.9585
▁winning	-9.95852
▁transform	-9.95894
▁whi	-9.95895
Author	-9.95947
stand	-9.96062
▁breath	-9.96071
▁you▁get	-9.96205
▁Dan	-9.96226
▁when▁they	-9.96269
▁channel	-9.96285
OW	-9.96297
OT	-9.96356
▁your▁home	-9.96357
▁Foundation	-9.96363
Another	-9.96367
▁lots▁of	-9.96418
▁same	-9.96459
▁although	-9.96463
▁object	-9.96544
▁dinner	-9.96558
I▁have	-9.96589
▁opt	-9.96696
▁Card	-9.967
▁equal	-9.96707
active	-9.96762
▁Arm	-9.96783
▁Mary	-9.96784
▁adding	-9.96821
▁conversation	-9.96826
▁to▁meet	-9.96847
▁kick	-9.9685
DE	-9.9689
▁flu	-9.96894
▁burn	-9.97036
▁wash	-9.97087
▁guests	-9.97191
▁lose	-9.97202
▁sample	-9.97261
▁Robert	-9.97333
▁survey	-9.97375
▁butter	-9.97461
eng	-9.97546
zen	-9.97551
▁snow	-9.97578
establish	-9.97623
▁know▁what	-9.9767
▁district	-9.97675
▁trial	-9.97693
▁because▁it	-9.97735
vic	-9.97838
▁evidence	-9.9786
▁publish	-9.9786
▁luck	-9.97955
▁with▁their	-9.98008
▁visual	-9.98009
▁but▁also	-9.98011
Where	-9.98049
▁alternative	-9.98073
ugg	-9.98143
▁Light	-9.98198
▁enough▁to	-9.98235
t▁know	-9.98253
▁beauty	-9.98264
•	-9.98269
▁route	-9.98346
!!	-9.98376
voc	-9.98376
▁serving	-9.98407
▁exciting	-9.98478
▁IT	-9.9848
▁if▁it	-9.985
▁studies	-9.98533
▁Fire	-9.98555
▁clo	-9.98576
EM	-9.98585
▁Development	-9.98873
▁We▁have	-9.98881
▁Project	-9.98901
▁a▁single	-9.98916
hill	-9.98937
▁TO	-9.98961
▁efficient	-9.99002
▁institution	-9.99104
▁constant	-9.99173
▁teaching	-9.99211
▁so▁many	-9.99222
▁Many	-9.99251
▁remind	-9.9929
▁cheap	-9.99362
star	-9.99387
▁football	-9.9939
▁England	-9.99405
▁sense	-9.99424
▁facilities	-9.99437
bro	-9.99451
▁label	-9.99453
▁mental	-9.99517
volution	-9.99519
▁poor	-9.99548
▁Week	-9.996
▁detail	-9.99608
▁engage	-9.99616
ote	-9.9962
▁executive	-9.99627
▁happened	-9.99676
▁novel	-9.99688
▁Ann	-9.9969
▁District	-9.99798
▁episode	-9.9982
angle	-9.99839
▁rather▁than	-9.9984
▁less▁than	-9.9995
▁involved	-9.99996
▁truck	-10
▁workers	-10.0003
▁Tom	-10.0004
▁famous	-10.0013
▁nu	-10.0019
▁exchange	-10.0026
▁friendly	-10.003
mount	-10.0031
ider	-10.0036
cultural	-10.0038
lash	-10.0042
▁promise	-10.0048
cies	-10.0052
▁you▁want▁to	-10.0052
shirt	-10.0053
▁appreciate	-10.0054
▁participate	-10.0055
▁fly	-10.0055
tom	-10.0057
▁layer	-10.0059
▁Rob	-10.006
▁Online	-10.0077
▁League	-10.0078
▁combination	-10.0084
print	-10.0087
run	-10.0088
▁forget	-10.0089
▁involve	-10.009
berg	-10.0091
▁established	-10.0091
▁status	-10.0091
▁temp	-10.0102
▁useful	-10.0103
▁military	-10.0114
▁depend	-10.0114
▁gun	-10.0116
▁exclusive	-10.0117
▁Tech	-10.0118
▁Tour	-10.0121
▁bowl	-10.0121
▁passed	-10.0124
inch	-10.0126
▁election	-10.0127
▁agreement	-10.0139
EA	-10.014
▁primary	-10.014
▁kept	-10.0141
▁Media	-10.0141
even	-10.0153
ola	-10.0164
▁if▁they	-10.0169
▁will▁not	-10.0182
poli	-10.0183
▁menu	-10.0185
▁Pan	-10.0192
▁Food	-10.0194
▁going▁to▁be	-10.0201
▁adopt	-10.0208
Next	-10.0216
▁know▁that	-10.022
▁economy	-10.0224
OP	-10.0224
▁Beach	-10.0225
ility	-10.0226
▁switch	-10.0227
▁Once	-10.0231
▁Dec	-10.0234
▁rise	-10.0253
▁instead▁of	-10.0253
▁classes	-10.0258
▁continued	-10.0264
▁reference	-10.0265
▁bike	-10.0265
▁Pen	-10.0267
▁beginning	-10.0273
▁Wood	-10.028
range	-10.0284
▁Auto	-10.0297
▁shoe	-10.0308
▁developing	-10.031
▁injury	-10.0312
▁Sea	-10.0313
▁work▁with	-10.0315
▁you▁want	-10.0316
▁ingredients	-10.0317
▁sport	-10.0317
▁In▁addition	-10.0325
▁the▁whole	-10.0331
▁larger	-10.0331
“	-10.034
▁saving	-10.0346
VI	-10.035
▁improvement	-10.0355
▁when▁he	-10.0355
▁Department▁of	-10.0356
▁discount	-10.0358
Visit	-10.0362
pher	-10.0369
▁roof	-10.0371
▁Leg	-10.0371
▁pea	-10.0372
▁medium	-10.0372
▁appearance	-10.0377
hum	-10.0383
▁edit	-10.0384
▁quote	-10.0388
▁Information	-10.0389
▁Obama	-10.0393
▁Brown	-10.0397
▁Peter	-10.0408
▁CEO	-10.041
▁arrest	-10.0415
augh	-10.0419
▁Who	-10.042
▁tie	-10.0426
▁centre	-10.0426
▁any▁other	-10.0438
▁relative	-10.0439
▁Commission	-10.044
suit	-10.0444
▁installation	-10.0444
▁a▁full	-10.0447
▁raise	-10.0451
▁Make	-10.0456
▁to▁bring	-10.0458
made	-10.0459
▁listed	-10.0463
ography	-10.0464
▁much▁more	-10.0469
▁at▁home	-10.0469
▁couldn	-10.0472
Car	-10.0474
▁kit	-10.0476
▁broad	-10.0481
▁People	-10.0481
▁sister	-10.0482
▁closed	-10.0482
▁sharing	-10.0483
▁designer	-10.0491
cut	-10.0493
▁hang	-10.05
▁manufacturer	-10.0504
cular	-10.0507
▁battle	-10.0509
▁bedroom	-10.0512
▁Central	-10.0513
agon	-10.0516
▁harm	-10.0518
cm	-10.0526
▁Jesus	-10.053
For▁more▁information	-10.0533
Step	-10.0538
▁seek	-10.0543
▁hat	-10.0543
▁older	-10.0545
▁learned	-10.0549
▁attach	-10.0555
▁throughout	-10.0558
▁virtual	-10.0564
▁cop	-10.0565
HA	-10.059
▁bottle	-10.059
▁the▁entire	-10.0599
▁grade	-10.06
▁Scott	-10.0601
▁prepared	-10.0603
▁designed▁to	-10.0603
▁produced	-10.0605
▁smart	-10.0613
▁may▁have	-10.0624
activ	-10.0634
therapy	-10.0635
▁information▁about	-10.0644
▁environmental	-10.0646
Before	-10.0657
▁set▁up	-10.0657
▁iPhone	-10.0666
▁Network	-10.0672
▁testing	-10.0672
▁Hotel	-10.0673
▁is▁still	-10.0677
▁organize	-10.0679
▁there▁is▁a	-10.068
▁error	-10.069
▁victim	-10.0692
▁Department	-10.0693
lb	-10.0696
▁Sho	-10.0699
▁fuel	-10.0718
▁guess	-10.072
▁cheese	-10.0727
▁Smith	-10.0727
titude	-10.0727
▁keeping	-10.0728
▁Valley	-10.0731
▁Thi	-10.0733
▁rather	-10.0733
ude	-10.0736
▁diet	-10.0737
▁plastic	-10.0739
▁check▁out	-10.0746
▁appeal	-10.0749
#	-10.0749
▁Special	-10.0752
ada	-10.0752
▁a▁couple▁of	-10.0775
▁died	-10.0779
▁Family	-10.078
▁champion	-10.0795
source	-10.0796
▁agency	-10.08
▁longer	-10.0803
▁a▁week	-10.0803
▁spin	-10.0813
▁rare	-10.0824
▁central	-10.0825
with	-10.0829
▁updated	-10.0832
▁cloud	-10.0832
▁you▁don	-10.0837
▁boat	-10.0838
▁judge	-10.0838
▁reality	-10.0842
▁horse	-10.0845
▁counter	-10.0847
▁Report	-10.0851
▁which▁was	-10.0851
▁contribute	-10.0853
▁Master	-10.0853
▁capture	-10.0857
izz	-10.086
dict	-10.0866
lastname	-10.0867
▁generate	-10.0867
hand	-10.0868
▁Data	-10.0877
▁no▁longer	-10.0879
SU	-10.0893
▁properties	-10.0897
▁Call	-10.0898
▁which▁are	-10.0899
▁ultimate	-10.0903
ENT	-10.0909
▁becoming	-10.091
▁Chicago	-10.0911
▁tough	-10.0911
▁Grand	-10.0919
Com	-10.0919
Don	-10.092
▁trouble	-10.0922
▁continu	-10.0927
▁commitment	-10.0927
ji	-10.0931
▁lesson	-10.0931
▁Pay	-10.0931
▁maintenance	-10.0932
▁George	-10.0935
▁give▁you	-10.094
**	-10.0942
▁entry	-10.0943
▁lunch	-10.0945
bri	-10.0948
aving	-10.0955
▁leaving	-10.0957
water	-10.0965
▁adapt	-10.0966
▁revenue	-10.0967
holder	-10.0967
▁Real	-10.0973
▁your▁business	-10.0974
▁poll	-10.0976
▁electronic	-10.098
▁Alex	-10.0983
▁flavor	-10.0984
▁who▁have	-10.0984
phone	-10.0991
▁bear	-10.0996
▁psych	-10.0997
▁Social	-10.0999
uce	-10.1
▁workshop	-10.1017
▁Cho	-10.102
▁blend	-10.1021
▁bought	-10.1021
▁afternoon	-10.1024
▁essay	-10.1024
▁facility	-10.1033
▁leadership	-10.1037
▁last▁week	-10.1037
▁selected	-10.104
▁numerous	-10.1041
▁waste	-10.1041
▁sponsor	-10.1044
▁programme	-10.1048
eather	-10.1051
▁covered	-10.1065
▁settle	-10.1066
▁coverage	-10.1077
▁spending	-10.1081
▁Android	-10.1086
▁perhaps	-10.109
▁Tu	-10.1091
wide	-10.1096
▁square	-10.1108
▁how▁much	-10.1117
Link	-10.1127
▁shall	-10.1131
Search	-10.1135
▁nine	-10.1141
▁visitors	-10.115
▁except	-10.115
▁opened	-10.1151
Just	-10.1157
law	-10.1158
▁attorney	-10.1165
▁complain	-10.1166
▁female	-10.1167
proof	-10.1167
▁advanced	-10.1172
▁watching	-10.1179
▁appointment	-10.1182
ground	-10.1182
▁participant	-10.119
but	-10.1196
Point	-10.1196
▁distance	-10.1197
▁retire	-10.12
▁Under	-10.1204
▁Chinese	-10.1208
wise	-10.1221
▁bio	-10.1228
ouch	-10.1228
▁plate	-10.1234
▁the▁highest	-10.1236
▁wheel	-10.1239
▁faith	-10.1239
▁painting	-10.124
▁OF	-10.1244
▁actual	-10.1247
▁detect	-10.125
▁buying	-10.125
▁presentation	-10.1253
you	-10.1279
care	-10.1282
▁Amazon	-10.1294
▁cake	-10.1294
▁mom	-10.1296
▁operating	-10.1296
One▁of▁the	-10.1298
▁crowd	-10.1302
▁changing	-10.1308
name	-10.1312
state	-10.1318
~	-10.1318
▁he▁has	-10.1323
▁cleaning	-10.1331
We▁have	-10.1335
ado	-10.1341
Qu	-10.1343
▁obvious	-10.1343
▁related▁to	-10.1346
▁volume	-10.1346
▁the▁main	-10.1349
olk	-10.1356
azz	-10.136
▁There▁is	-10.1365
TO	-10.1371
▁tire	-10.1371
shire	-10.1379
▁radio	-10.1383
▁indicate	-10.1387
▁chat	-10.139
front	-10.1396
▁pump	-10.1398
▁root	-10.1401
▁capacity	-10.1401
▁responsible▁for	-10.1405
bell	-10.1415
▁behavior	-10.1422
▁prepare	-10.1425
last	-10.1426
▁partnership	-10.1427
▁but▁not	-10.1428
▁Microsoft	-10.1437
▁busy	-10.1442
▁mountain	-10.1449
▁the▁fact▁that	-10.1455
▁editor	-10.1461
▁worry	-10.1462
owned	-10.1467
▁society	-10.1468
▁presented	-10.147
This▁is▁a	-10.1471
▁memory	-10.1476
Through	-10.1483
▁a▁huge	-10.1484
▁Manager	-10.1489
▁parent	-10.149
It▁was	-10.1493
▁sexual	-10.1502
▁Head	-10.1503
▁Israel	-10.1504
▁ways▁to	-10.1504
▁one▁of▁the▁most	-10.1505
▁plenty▁of	-10.1512
▁academic	-10.1512
▁teach	-10.1514
▁graphic	-10.1517
▁developer	-10.1522
▁raised	-10.1524
▁Centre	-10.1526
ference	-10.1531
▁whatever	-10.1537
▁funding	-10.1539
▁selling	-10.1539
▁brown	-10.1547
€	-10.1548
▁chocolate	-10.1563
▁Women	-10.1566
cover	-10.1567
ve▁got	-10.1571
rmal	-10.1571
▁Live	-10.1578
raft	-10.1589
▁parties	-10.1597
▁parking	-10.1602
▁Steve	-10.1607
▁version▁of	-10.1611
▁awesome	-10.1618
▁yesterday	-10.1618
▁tight	-10.1619
▁chain	-10.162
▁assistance	-10.1622
ALL	-10.1641
▁previously	-10.1642
▁adventure	-10.1645
▁corporate	-10.1646
▁hire	-10.1654
▁huge	-10.1666
▁defend	-10.1668
▁crime	-10.1677
▁Committee	-10.1691
▁chicken	-10.1692
▁Louis	-10.1697
known	-10.1699
▁Asia	-10.1701
GB	-10.1704
▁magazine	-10.171
bilities	-10.1713
Additional	-10.1714
▁middle	-10.1714
▁United	-10.1717
▁milk	-10.1721
However	-10.1733
▁sauce	-10.1735
load	-10.174
▁pitch	-10.1748
plan	-10.175
▁hearing	-10.1753
▁thousands▁of	-10.1756
▁studio	-10.1763
cip	-10.1763
▁He▁was	-10.1766
▁fantastic	-10.1766
▁Society	-10.1767
▁proper	-10.1777
▁apartment	-10.1783
▁shift	-10.1787
▁France	-10.1793
▁allowing	-10.1802
▁predict	-10.1809
▁citizen	-10.181
▁Way	-10.1817
▁chart	-10.1819
▁bathroom	-10.1825
▁Lord	-10.1829
gal	-10.1833
▁Tru	-10.1834
▁putting	-10.1837
tress	-10.1847
▁Town	-10.1847
▁frequent	-10.1853
▁earth	-10.1854
▁register	-10.1857
▁relevant	-10.1867
Access	-10.1867
▁investigation	-10.1868
See	-10.1873
▁icon	-10.1874
‘	-10.188
▁right▁now	-10.1895
▁generally	-10.1895
▁Fla	-10.19
▁admit	-10.1901
▁if▁you▁are	-10.191
▁Wall	-10.1912
▁pepper	-10.1915
plain	-10.1915
▁working▁with	-10.1928
▁import	-10.1929
▁despite	-10.1937
▁innovative	-10.1938
▁honest	-10.1938
▁helpful	-10.194
rov	-10.1941
▁Chi	-10.1947
▁Martin	-10.1959
▁truth	-10.1961
▁is▁one▁of▁the	-10.1967
▁info	-10.1973
▁Long	-10.1977
▁associated▁with	-10.1981
▁Cam	-10.1981
▁guest	-10.1987
▁firstname	-10.1988
▁Right	-10.1991
utter	-10.1992
heat	-10.2004
▁wrap	-10.2016
▁Congress	-10.2019
▁Kar	-10.202
ounce	-10.2024
▁Government	-10.2027
Edit	-10.2028
Direct	-10.2029
▁Technology	-10.2041
?”	-10.2045
▁civil	-10.2055
▁List	-10.2066
▁insight	-10.2072
▁slightly	-10.2076
▁Trump	-10.2084
▁thick	-10.2085
▁Medical	-10.2088
▁submit	-10.2089
▁every▁day	-10.2107
cap	-10.2117
▁spirit	-10.2118
▁integrate	-10.2123
position	-10.2126
▁accurate	-10.2153
▁audio	-10.2153
▁scar	-10.2157
▁library	-10.2159
▁eating	-10.2164
▁launched	-10.2171
▁incident	-10.2172
What▁is	-10.2175
▁upcoming	-10.2179
▁broke	-10.2179
▁surrounding	-10.2181
Check▁out	-10.2191
Free	-10.2205
▁Nov	-10.2207
▁will▁take	-10.2212
▁defense	-10.2224
PE	-10.2227
circ	-10.2229
▁extensive	-10.2233
▁casino	-10.224
▁define	-10.2244
▁emergency	-10.2244
away	-10.2247
▁wants▁to	-10.2247
▁foreign	-10.225
▁an▁un	-10.2251
Buy	-10.2252
▁expertise	-10.2252
▁Security	-10.2254
▁fourth	-10.2256
▁finger	-10.2263
▁practical	-10.2269
▁boost	-10.227
▁Pol	-10.227
▁magic	-10.2272
▁delicious	-10.2272
▁Land	-10.2281
▁magn	-10.2281
▁boot	-10.2284
▁Drive	-10.2288
▁least	-10.229
immer	-10.2292
▁joint	-10.2303
▁doubt	-10.2311
▁repeat	-10.2311
▁presence	-10.2313
Copyright	-10.2318
▁climate	-10.2318
▁Hospital	-10.232
ographic	-10.2324
▁consistent	-10.2329
▁rating	-10.233
▁database	-10.2357
▁absolutely	-10.2362
▁joined	-10.2362
▁to▁improve	-10.2363
▁along▁the	-10.2371
▁Guide	-10.2375
▁struggle	-10.2392
▁upgrade	-10.2394
▁initiative	-10.2407
▁Museum	-10.2413
▁radi	-10.2414
Those	-10.2423
cup	-10.2428
creat	-10.2431
▁Press	-10.2432
▁furniture	-10.2445
▁command	-10.2446
▁mentioned	-10.2454
nger	-10.2455
corn	-10.2456
▁negative	-10.2466
▁brief	-10.2473
▁shut	-10.2475
▁involved▁in	-10.2481
▁mention	-10.2482
▁high▁school	-10.2487
▁minor	-10.2496
▁cities	-10.2498
▁expensive	-10.2509
▁I▁didn	-10.251
flow	-10.2521
stitution	-10.2529
MC	-10.2533
▁Jack	-10.2534
▁the▁final	-10.2537
TR	-10.2539
Welcome	-10.2542
▁confidence	-10.2543
crib	-10.2559
▁meat	-10.2561
▁real▁estate	-10.2563
▁birth	-10.2565
▁Hand	-10.2581
▁filter	-10.2587
▁out▁there	-10.2589
TV	-10.2589
▁Union	-10.2594
▁Pet	-10.26
claim	-10.2602
▁edition	-10.2603
lake	-10.2606
▁internal	-10.2607
▁competitive	-10.261
Oh	-10.2617
▁tag	-10.2621
▁experiment	-10.2622
quest	-10.2629
ATE	-10.263
▁transport	-10.2632
▁neck	-10.2633
▁strip	-10.2634
▁seeking	-10.2635
Let	-10.2646
How▁to	-10.2656
gel	-10.2671
▁educational	-10.2672
May	-10.2675
Image	-10.2676
▁campus	-10.2679
▁promotion	-10.268
▁lawyer	-10.2681
▁category	-10.2698
▁restrict	-10.2699
▁combined	-10.2702
▁destination	-10.2702
▁fellow	-10.2716
▁bull	-10.2718
▁speaker	-10.2718
▁confident	-10.272
▁muscle	-10.2723
▁registered	-10.273
▁bas	-10.2731
▁reward	-10.2732
▁Form	-10.2733
▁to▁help▁you	-10.2745
Do▁you	-10.2746
▁Pack	-10.2763
actic	-10.2767
iness	-10.277
▁Festival	-10.2773
▁approximately	-10.2785
▁responsibility	-10.2785
▁married	-10.2786
▁comprehensive	-10.2787
▁Series	-10.2788
▁Frank	-10.2794
▁chemical	-10.2807
▁birthday	-10.2807
▁maximum	-10.2807
▁surgery	-10.281
▁stretch	-10.281
Of▁course	-10.2816
what	-10.2823
▁debt	-10.2824
▁regulation	-10.283
road	-10.2843
▁marriage	-10.2848
▁Japan	-10.285
Are▁you	-10.2861
BO	-10.2863
▁therefore	-10.2865
▁Garden	-10.2867
▁need▁to▁be	-10.287
▁minimum	-10.287
▁coast	-10.2871
▁around▁the▁world	-10.288
cker	-10.2881
▁convert	-10.2883
▁employee	-10.2884
▁advise	-10.2887
inder	-10.2891
▁approved	-10.2897
EX	-10.2898
▁mistake	-10.2899
▁interior	-10.2908
▁labor	-10.291
▁battery	-10.291
▁sense▁of	-10.2912
▁processes	-10.2918
Custom	-10.2923
OC	-10.2924
▁laugh	-10.2926
▁YOU	-10.2929
▁feedback	-10.2935
style	-10.2938
▁anywhere	-10.2945
▁located▁in	-10.2946
▁village	-10.2951
▁Conference	-10.2951
▁chief	-10.2957
▁contest	-10.2961
Over	-10.2966
subscribe	-10.2969
▁resource	-10.2973
▁describe	-10.2975
▁demonstrate	-10.2978
First	-10.2986
▁worldwide	-10.2987
▁creation	-10.2993
▁contribution	-10.3005
▁Republican	-10.3007
▁compete	-10.3008
▁compare	-10.3009
▁commission	-10.3021
▁Old	-10.3027
▁cable	-10.3028
▁habit	-10.3029
▁affordable	-10.303
count	-10.3034
valu	-10.3052
▁Fund	-10.3055
▁detailed	-10.3063
▁I▁got	-10.3067
▁installed	-10.3067
▁even▁more	-10.3073
▁Mike	-10.3074
▁compared▁to	-10.3079
uke	-10.3079
▁too▁much	-10.3081
Posted	-10.3086
▁hunt	-10.3087
▁Rose	-10.3088
▁connected	-10.3088
▁specialist	-10.3091
▁chip	-10.3093
▁advertising	-10.3093
▁irr	-10.3095
▁Code	-10.31
▁German	-10.3104
▁television	-10.3118
App	-10.3124
▁McC	-10.3125
change	-10.3126
▁league	-10.313
▁Jim	-10.3136
▁on▁Saturday	-10.3147
▁gear	-10.3147
▁innovation	-10.3162
▁the▁opportunity▁to	-10.3164
▁sitting	-10.3173
▁inspiration	-10.3174
▁landscape	-10.3176
RC	-10.3182
·	-10.3186
▁valid	-10.319
rug	-10.3191
▁festival	-10.3204
▁I▁thought	-10.3208
▁accomplish	-10.321
▁instrument	-10.322
▁the▁original	-10.3223
▁prize	-10.3223
▁joy	-10.3231
▁Van	-10.3231
▁Chief	-10.3241
▁otherwise	-10.3246
▁scan	-10.3247
Up	-10.3248
anda	-10.3252
▁mass	-10.3256
▁housing	-10.326
▁perspective	-10.3261
▁Sports	-10.3264
Share	-10.3268
▁applied	-10.3272
▁there▁is▁no	-10.3272
gress	-10.3278
▁properly	-10.3281
▁entertainment	-10.3283
▁familiar	-10.3293
EST	-10.3295
▁Plus	-10.3297
hur	-10.33
▁Control	-10.3302
▁ourselves	-10.3306
face	-10.3309
▁administration	-10.3313
▁lack▁of	-10.3313
▁policies	-10.3324
▁sand	-10.3326
▁Cook	-10.3328
▁Party	-10.3332
▁bond	-10.3333
▁strike	-10.3336
▁Ya	-10.3337
pha	-10.3342
▁instance	-10.3344
▁coat	-10.3353
▁technologies	-10.3357
▁thanks▁to	-10.3359
▁actor	-10.3368
▁wave	-10.3374
▁most▁important	-10.3388
▁Library	-10.339
▁Have	-10.3392
ologist	-10.3392
▁instant	-10.3392
char	-10.3394
berry	-10.3395
▁Australian	-10.3397
▁species	-10.3402
▁if▁you▁have	-10.3422
▁flowers	-10.3423
▁outcome	-10.3428
▁deal▁with	-10.3433
▁shooting	-10.3434
Source	-10.3436
▁suspect	-10.3448
▁employer	-10.345
which	-10.3455
▁regard	-10.3458
▁slot	-10.3459
▁featuring	-10.3459
▁Los▁Angeles	-10.3464
OK	-10.3465
▁permit	-10.3468
Current	-10.3469
Most	-10.3474
umble	-10.3475
▁male	-10.348
▁transaction	-10.3481
▁Gene	-10.3486
uzz	-10.3488
▁its▁own	-10.3489
I▁think	-10.349
▁reliable	-10.3491
▁smile	-10.3493
▁Human	-10.3494
▁cla	-10.3497
▁debut	-10.3498
▁weak	-10.3498
▁killed	-10.3508
▁organisation	-10.3516
▁eventually	-10.3519
°	-10.352
Well	-10.3523
▁combine	-10.3527
▁quiet	-10.3528
▁so▁far	-10.353
▁strategies	-10.3556
▁Canadian	-10.3556
▁Opera	-10.3587
▁recruit	-10.3588
▁caught	-10.3594
▁favourite	-10.3597
▁emotional	-10.3598
Three	-10.3605
▁chapter	-10.3606
quality	-10.3615
▁Richard	-10.3616
▁delay	-10.362
▁motivat	-10.362
Though	-10.3624
▁cutting	-10.3627
▁inches	-10.3627
lap	-10.3629
▁plug	-10.3634
▁solve	-10.3638
aj	-10.3646
▁breakfast	-10.3651
▁Fair	-10.3659
▁manufacturing	-10.3671
▁imagine	-10.3674
▁producer	-10.3677
▁govern	-10.3682
▁Earth	-10.3688
▁abuse	-10.3692
UL	-10.3695
▁neighborhood	-10.3701
▁Night	-10.3706
▁typically	-10.3711
▁Western	-10.3737
▁vegetable	-10.3747
▁described	-10.3749
▁Wild	-10.3749
▁working▁on	-10.3754
▁as▁part▁of	-10.3756
UC	-10.3757
▁fell	-10.3765
▁specifically	-10.3765
▁vary	-10.3768
▁university	-10.3778
Book	-10.3779
▁Key	-10.3784
▁Johnson	-10.3787
▁Germany	-10.3791
▁publication	-10.3795
▁Academy	-10.3797
▁height	-10.38
▁trick	-10.3801
▁golf	-10.3804
▁bread	-10.3805
▁donation	-10.381
▁blow	-10.3811
▁reserve	-10.3811
▁description	-10.3811
▁resolution	-10.3812
»	-10.3823
▁remote	-10.3828
▁Carolina	-10.3829
▁venue	-10.383
▁Thomas	-10.3836
▁Corp	-10.384
▁registration	-10.384
▁alter	-10.3851
▁introduced	-10.3851
▁Queen	-10.3855
▁bath	-10.3855
Connect	-10.3857
▁unless	-10.3858
▁his▁own	-10.3861
Original	-10.3864
▁protein	-10.3873
▁teeth	-10.3877
awn	-10.3884
▁possess	-10.3889
▁intended	-10.3893
▁proceed	-10.3904
▁alcohol	-10.3909
▁crack	-10.3914
▁powder	-10.3917
▁rose	-10.3919
▁border	-10.3919
Other	-10.3921
▁foundation	-10.3921
▁Global	-10.3923
▁planned	-10.3924
▁criminal	-10.3928
TER	-10.3932
▁logo	-10.3938
▁recovery	-10.3945
▁critic	-10.3945
▁Room	-10.3955
▁Farm	-10.3955
▁hurt	-10.3977
▁industrial	-10.398
public	-10.398
▁cancel	-10.3981
▁exam	-10.3988
▁organic	-10.3996
▁Girl	-10.3997
▁United▁States	-10.4005
▁NOT	-10.4006
▁on▁Friday	-10.4014
▁Virginia	-10.4018
▁incredible	-10.4022
▁in▁front▁of	-10.4026
▁guard	-10.4034
▁trading	-10.4045
▁thus	-10.4046
Read	-10.4054
▁automatically	-10.4057
▁crash	-10.406
▁browser	-10.4063
▁tank	-10.4066
just	-10.4066
▁representative	-10.4067
▁valuable	-10.4072
▁assessment	-10.4072
▁as▁possible	-10.4073
▁collaboration	-10.408
▁at▁the▁end▁of	-10.4081
▁bonus	-10.4083
▁Jeff	-10.4083
worth	-10.4083
Personal	-10.4093
Professional	-10.4095
▁Korea	-10.4096
▁Paris	-10.4102
▁Energy	-10.4104
Enjoy	-10.4106
quire	-10.4107
▁finance	-10.4109
▁routine	-10.4109
▁dining	-10.4111
▁Italian	-10.4118
▁zone	-10.4123
▁river	-10.4127
Add	-10.4139
▁sustain	-10.4139
Comp	-10.4147
▁airport	-10.4157
▁Coast	-10.4159
▁victory	-10.4164
▁rapid	-10.4166
▁twice	-10.4173
▁pocket	-10.4176
▁worse	-10.418
▁Brand	-10.4183
▁Max	-10.419
▁Low	-10.4198
▁talk▁about	-10.42
▁Royal	-10.4201
▁deposit	-10.4217
▁speech	-10.4218
Also	-10.4223
▁possibly	-10.4226
▁committee	-10.4231
▁distribution	-10.4231
▁Middle	-10.4234
▁medicine	-10.4236
abb	-10.424
▁rental	-10.4277
▁Store	-10.4279
▁crew	-10.429
▁Shar	-10.4293
▁flour	-10.4298
▁expense	-10.4312
▁the▁bottom	-10.4314
▁symptoms	-10.4314
▁Box	-10.4315
▁when▁it▁comes▁to	-10.4316
▁distinct	-10.4317
▁tradition	-10.4319
▁proposal	-10.4319
▁per▁cent	-10.4323
▁injuries	-10.4327
Phone	-10.4327
▁tip	-10.4336
Many	-10.4339
hydr	-10.4344
▁pipe	-10.4349
▁tune	-10.435
▁better▁than	-10.4362
▁tomorrow	-10.4367
▁breast	-10.4376
▁lifestyle	-10.4377
▁broken	-10.4378
▁depending▁on	-10.4379
▁my▁own	-10.438
▁please▁contact	-10.4386
▁manual	-10.4388
▁chosen	-10.439
▁premium	-10.4414
▁Mountain	-10.4415
▁Boston	-10.4419
▁Japanese	-10.4426
▁Bob	-10.4442
▁bigger	-10.4443
▁vacation	-10.4449
▁prison	-10.445
▁Area	-10.4471
▁infrastructure	-10.4475
Sometimes	-10.4475
▁Oct	-10.4477
Once	-10.4494
break	-10.4498
▁massive	-10.4502
▁Audi	-10.4505
▁a▁member▁of	-10.4508
action	-10.4511
▁strange	-10.4516
▁acquire	-10.4517
Speak	-10.4522
▁sight	-10.4529
▁can▁be▁used	-10.4531
▁failure	-10.4537
▁Dev	-10.4539
▁manner	-10.4556
▁Arch	-10.4558
▁steel	-10.4558
▁continues▁to	-10.4562
▁concert	-10.4566
▁Mexico	-10.4569
Stat	-10.4575
▁accus	-10.4575
Senior	-10.4576
▁prospect	-10.4585
▁oven	-10.4596
▁rot	-10.4597
▁proposed	-10.46
▁shock	-10.4605
▁native	-10.4607
licit	-10.4614
▁bottom	-10.4616
▁was▁born	-10.4618
▁feel▁like	-10.4622
▁yes	-10.4626
▁murder	-10.4637
▁Ohio	-10.4639
Meet	-10.4657
▁juice	-10.4657
▁climb	-10.4666
Comment	-10.4666
▁guitar	-10.4673
▁silver	-10.4674
▁Name	-10.4679
Which	-10.4684
▁objective	-10.4684
▁weapon	-10.4685
▁Cross	-10.4688
▁historical	-10.4689
▁divide	-10.4695
wear	-10.47
▁convenient	-10.47
▁recover	-10.4707
▁Young	-10.4709
▁vital	-10.471
▁phase	-10.4712
▁investors	-10.473
▁scheme	-10.4733
Who	-10.4743
▁draft	-10.4743
▁agencies	-10.4749
▁acid	-10.4752
▁storm	-10.4754
▁clip	-10.4755
▁Jones	-10.4755
▁efficiency	-10.4759
Even	-10.4771
▁impressive	-10.4782
▁principle	-10.4794
▁assembl	-10.4795
▁Executive	-10.4799
▁flag	-10.4799
▁clinical	-10.4801
▁rough	-10.4803
▁tournament	-10.481
Available	-10.4824
Having	-10.4825
▁receiving	-10.4834
▁focused▁on	-10.4847
▁thin	-10.4863
▁African	-10.4868
▁awareness	-10.4869
▁exhibition	-10.487
▁transition	-10.4878
▁yellow	-10.4879
\	-10.4886
GO	-10.4888
▁Michigan	-10.4889
▁permanent	-10.4891
▁sentence	-10.4893
▁domain	-10.4894
`	-10.49
▁symbol	-10.4917
▁For▁example	-10.4922
▁violence	-10.4934
▁Little	-10.495
▁freedom	-10.4965
▁will▁be▁able▁to	-10.4968
▁deserve	-10.4975
▁ongoing	-10.4978
▁household	-10.4978
▁hundreds▁of	-10.498
▁Angel	-10.4996
▁usual	-10.4998
▁Partner	-10.5
▁Ltd	-10.5
▁everyday	-10.5002
▁clothes	-10.5004
▁Instagram	-10.5011
▁FREE	-10.5016
▁wire	-10.5019
▁flash	-10.503
▁domestic	-10.5044
▁In▁fact	-10.5044
▁know▁how	-10.5049
▁diverse	-10.5049
Despite	-10.5066
▁Trust	-10.509
Invest	-10.5092
▁facing	-10.5094
▁Russian	-10.5101
▁grab	-10.5103
▁Down	-10.5119
▁healthcare	-10.5127
▁bridge	-10.5133
▁Roman	-10.5134
▁belong	-10.5136
▁Santa	-10.5138
▁Pass	-10.5147
▁Charles	-10.5155
craft	-10.5157
▁witness	-10.5158
▁branch	-10.5179
▁Prince	-10.5188
▁years▁old	-10.5194
▁exhibit	-10.5201
▁observe	-10.5208
▁portion	-10.5211
▁Studio	-10.5215
▁brush	-10.5221
▁Adam	-10.5223
Create	-10.5223
power	-10.5227
▁ease	-10.523
▁disappoint	-10.523
▁replacement	-10.5233
▁leather	-10.5244
▁stopped	-10.5252
▁challenging	-10.5264
▁your▁favorite	-10.5267
▁high▁quality	-10.527
▁supplier	-10.5273
athlete	-10.5274
▁thread	-10.5275
ternal	-10.5279
▁solar	-10.528
▁origin	-10.5284
Happy	-10.5291
▁Africa	-10.5297
▁may▁not▁be	-10.5312
▁celebration	-10.5312
▁identified	-10.5315
▁associate	-10.5328
▁enterprise	-10.5332
▁Federal	-10.5333
easing	-10.5337
▁strategic	-10.534
Environment	-10.5345
COM	-10.5345
▁High▁School	-10.5346
▁mortgage	-10.5347
▁slice	-10.5352
▁survive	-10.5356
▁iron	-10.536
▁crisis	-10.536
▁council	-10.5362
You▁are	-10.5371
▁decline	-10.5394
Donald	-10.5411
▁employment	-10.542
▁odd	-10.5428
▁password	-10.5431
⁄	-10.5435
lent	-10.5441
▁smoke	-10.5441
empt	-10.5442
▁luxury	-10.5443
▁accessible	-10.5443
▁counsel	-10.5457
▁History	-10.5458
▁thrill	-10.546
▁Avenue	-10.5468
▁outstanding	-10.5471
▁severe	-10.5473
▁division	-10.5485
▁willing▁to	-10.5495
▁smartphone	-10.5497
▁debate	-10.5506
▁favor	-10.5513
▁Jackson	-10.5524
▁context	-10.5532
▁mixture	-10.5534
▁prompt	-10.554
▁sky	-10.5542
▁Clean	-10.5549
.”
“	-10.5551
▁stunning	-10.5553
▁extension	-10.5558
▁texture	-10.5566
Experience	-10.5572
▁hardware	-10.5584
▁semi	-10.5588
▁Film	-10.56
▁Standard	-10.5607
▁encounter	-10.5609
▁interface	-10.5611
▁dangerous	-10.5615
▁looks▁like	-10.5628
▁nearby	-10.5632
▁Travel	-10.5637
▁veteran	-10.5638
▁entrepreneur	-10.5639
▁Daily	-10.5641
charge	-10.5646
high	-10.5652
▁announce	-10.5656
▁liquid	-10.5662
▁tele	-10.5666
▁broadcast	-10.5674
Professor	-10.5678
▁hall	-10.569
▁protest	-10.5691
▁Merc	-10.5707
▁carefully	-10.5716
Application	-10.5723
▁Number	-10.5728
▁Colorado	-10.573
▁Southern	-10.5745
▁will▁not▁be	-10.5753
▁contemporary	-10.5769
▁tall	-10.5776
Question	-10.5777
▁folks	-10.5779
▁hook	-10.5792
▁Friend	-10.5801
▁examine	-10.5803
▁alleged	-10.5815
▁construct	-10.5821
▁YouTube	-10.583
emporary	-10.5838
▁announcement	-10.5845
▁assess	-10.5853
▁shade	-10.5862
▁Summer	-10.5867
▁newspaper	-10.5877
Should	-10.5879
▁health▁care	-10.5885
Provide	-10.5889
▁conflict	-10.5892
▁sharp	-10.5892
▁Ireland	-10.5894
▁Terr	-10.5896
class	-10.5902
▁extract	-10.5911
▁sustainable	-10.5915
▁formula	-10.5916
▁assume	-10.592
▁losing	-10.592
▁infection	-10.5926
▁crazy	-10.5932
Further	-10.5935
▁talking▁about	-10.5937
▁taught	-10.5938
▁Georgia	-10.5938
from	-10.5941
Location	-10.5945
▁passenger	-10.5946
▁destroy	-10.5951
▁excess	-10.5955
▁Space	-10.5957
▁advertise	-10.5959
▁external	-10.5961
▁association	-10.597
▁supplies	-10.5972
▁portfolio	-10.5983
▁Leader	-10.5985
post	-10.5987
▁a▁series▁of	-10.5987
▁Word	-10.5991
▁hoping	-10.5994
▁membership	-10.6006
▁exceptional	-10.6011
▁Feb	-10.6017
▁clothing	-10.6022
▁random	-10.6027
▁incorporate	-10.6029
Unfortunately	-10.6035
▁Disney	-10.6035
▁Spanish	-10.6037
▁authentic	-10.6046
Total	-10.6047
▁Motor	-10.6056
▁variety	-10.6065
▁entertain	-10.6077
▁herself	-10.6082
▁utilize	-10.6084
â	-10.6085
Write	-10.6085
dependent	-10.6086
▁Division	-10.6087
▁expectations	-10.609
▁fitness	-10.6101
▁Maybe	-10.612
▁upload	-10.6126
Remember	-10.6133
▁wealth	-10.6137
▁reaction	-10.6139
▁baking	-10.6141
▁engagement	-10.6149
▁funny	-10.6155
▁accessories	-10.6161
▁tend▁to	-10.617
▁my▁favorite	-10.6171
▁defeat	-10.6193
▁pink	-10.6194
▁residential	-10.6197
▁classroom	-10.6198
▁scientist	-10.6198
Build	-10.6198
Finally	-10.6204
▁transportation	-10.6213
▁carbon	-10.6224
▁Print	-10.6232
▁Order	-10.6235
▁improving	-10.6237
▁Account	-10.624
▁as▁soon▁as	-10.6244
▁look▁forward▁to	-10.6254
▁atmosphere	-10.6254
▁audit	-10.6257
▁thorough	-10.6259
▁Financial	-10.6262
▁pleasure	-10.6265
▁identity	-10.6265
▁Andrew	-10.6266
▁COVID	-10.6269
▁Building	-10.6276
▁supplement	-10.6278
▁even▁though	-10.6299
▁in▁terms▁of	-10.6302
▁at▁the▁same▁time	-10.6304
▁credit▁card	-10.6315
▁museum	-10.6316
▁Daniel	-10.6318
▁Turn	-10.6328
metric	-10.6333
▁exact	-10.6336
▁Instead	-10.6354
build	-10.6354
▁nurse	-10.6363
▁neighbor	-10.6367
▁managing	-10.6367
▁giant	-10.6372
Employ	-10.6375
Work	-10.6386
▁preparation	-10.6387
▁operator	-10.6389
▁qualified	-10.6394
▁cooperat	-10.6395
▁dropped	-10.6397
▁tiny	-10.6402
▁guidance	-10.6404
foot	-10.6415
quarter	-10.6416
▁Senate	-10.6417
▁column	-10.6419
▁introduce	-10.6429
▁emerge	-10.6429
▁eligible	-10.6433
TION	-10.6448
▁authorities	-10.6456
▁sensor	-10.6461
▁certified	-10.6472
▁garage	-10.6472
▁Russia	-10.6475
▁leak	-10.6478
▁calendar	-10.648
▁split	-10.6486
▁typical	-10.6493
▁as▁much▁as	-10.6501
▁Training	-10.6505
▁deploy	-10.6506
▁alongside	-10.6508
Own	-10.6509
Post	-10.6516
▁flexible	-10.6518
▁employ	-10.6532
▁singer	-10.6538
▁slide	-10.6546
present	-10.6551
▁premier	-10.6566
▁reputation	-10.6566
▁tweet	-10.6567
▁Minister	-10.6575
▁medication	-10.6579
▁Customer	-10.6579
▁professor	-10.6585
▁flood	-10.659
▁Championship	-10.6596
▁worst	-10.6598
▁expose	-10.6602
▁smell	-10.6605
▁dirt	-10.6605
▁sudden	-10.6615
lastic	-10.6621
▁availability	-10.6643
▁interaction	-10.6644
▁historic	-10.6645
▁colleague	-10.6646
▁Radio	-10.6662
▁unable▁to	-10.6663
▁afford	-10.6667
▁scientific	-10.6672
▁restore	-10.6674
▁Italy	-10.6675
▁iPad	-10.6683
ATION	-10.6687
▁religious	-10.6691
▁Anti	-10.6692
▁Credit	-10.6693
▁dental	-10.6704
▁permission	-10.6707
There▁is▁no	-10.6709
▁refresh	-10.6715
▁DVD	-10.6716
crypt	-10.6717
▁faculty	-10.6721
▁approval	-10.6727
treat	-10.6729
Article	-10.6733
▁exposure	-10.6733
Read▁more	-10.6736
▁spark	-10.6742
▁clinic	-10.6743
▁aware▁of	-10.6747
▁manufacture	-10.6747
▁vendor	-10.6762
▁Silver	-10.677
▁spiritual	-10.6772
▁certificate	-10.6773
▁affiliate	-10.6779
▁hung	-10.6784
′′	-10.6786
conscious	-10.6805
▁Arab	-10.681
American	-10.681
school	-10.6817
direct	-10.6831
▁gorgeous	-10.6831
▁Ryan	-10.686
d▁like▁to	-10.6863
century	-10.6868
piece	-10.6873
▁LLC	-10.6874
▁interpret	-10.6886
Release	-10.6894
▁massage	-10.6894
▁distribute	-10.6898
▁San▁Francisco	-10.6899
Register	-10.691
▁outfit	-10.6916
stream	-10.6926
▁snap	-10.6936
▁Olympic	-10.6954
▁privacy	-10.6957
▁intention	-10.6957
▁mechanic	-10.6964
▁alert	-10.6965
▁aspects▁of	-10.6971
HERE	-10.6983
▁grass	-10.6988
▁choosing	-10.6998
▁resort	-10.7002
▁eliminate	-10.7002
í	-10.701
▁crucial	-10.7016
▁Model	-10.7019
▁pounds	-10.7043
▁orange	-10.7045
▁Safety	-10.705
▁disorder	-10.705
▁virus	-10.7058
▁Victoria	-10.7061
▁decrease	-10.7073
▁Country	-10.7074
IVE	-10.7077
▁continuous	-10.7077
▁submitted	-10.708
Choose	-10.7082
http	-10.7082
▁PDF	-10.7084
▁contrast	-10.7084
▁immediate	-10.7099
▁fulfill	-10.7101
▁legend	-10.7105
▁desk	-10.7108
▁relief	-10.7109
▁charm	-10.7109
▁York	-10.7125
▁plot	-10.7147
▁a▁wide▁range▁of	-10.7152
▁module	-10.7161
▁loose	-10.7165
▁emotion	-10.7169
▁Northern	-10.7176
▁filled▁with	-10.7179
▁arrange	-10.719
▁circle	-10.7192
▁hip	-10.7198
▁learn▁more▁about	-10.7201
▁illness	-10.7204
Develop	-10.7208
▁Communication	-10.7209
▁Medicine	-10.722
▁Catholic	-10.7227
▁belief	-10.7234
▁tomato	-10.7238
▁recall	-10.7243
▁memories	-10.7247
▁Airport	-10.7249
▁arrangement	-10.7253
Everyone	-10.7253
▁nutrition	-10.7255
▁circumstances	-10.7258
▁drag	-10.7266
▁injured	-10.7269
Term	-10.7271
▁argue	-10.7304
▁physician	-10.7307
▁minister	-10.7308
▁Taylor	-10.7312
Discover	-10.7316
▁Season	-10.7318
▁urban	-10.7318
▁copyright	-10.7333
▁knee	-10.7336
▁lemon	-10.7337
▁Collection	-10.7349
▁Insurance	-10.7351
Return	-10.7357
▁segment	-10.7361
▁template	-10.7362
▁New▁Zealand	-10.7379
▁evaluate	-10.7387
▁customer▁service	-10.7409
▁mask	-10.7431
▁dramatic	-10.7431
Enter	-10.7433
▁refuse	-10.7433
▁newsletter	-10.7433
John	-10.7437
Time	-10.7438
▁chose	-10.7439
▁ceremony	-10.7449
space	-10.7459
Would	-10.7475
▁legislation	-10.7485
cision	-10.7489
th▁century	-10.7497
▁illegal	-10.75
▁laptop	-10.7515
▁guidelines	-10.7545
▁argument	-10.7546
▁reduction	-10.755
▁gym	-10.7553
▁index	-10.7553
Meanwhile	-10.7574
Published	-10.7593
▁mirror	-10.7595
▁signature	-10.7603
Thank▁you▁for	-10.7613
jack	-10.7615
▁escape	-10.7619
Material	-10.7624
▁cabinet	-10.7628
▁refund	-10.7643
▁capabilities	-10.7644
▁hidden	-10.7648
▁tissue	-10.7653
▁Saint	-10.7654
Guard	-10.7655
▁suggestions	-10.7655
season	-10.7656
▁categories	-10.766
▁incredibly	-10.7662
▁a▁little▁bit	-10.7664
▁sweat	-10.7672
▁architect	-10.7688
▁accommodation	-10.7692
▁Miami	-10.7693
ogue	-10.7694
▁calm	-10.77
▁architecture	-10.77
▁regulator	-10.7712
▁hundred	-10.7719
▁prime	-10.772
▁indoor	-10.7726
▁qualify	-10.7739
▁supposed▁to	-10.7753
unny	-10.7754
▁twist	-10.7756
▁garlic	-10.7761
▁stimul	-10.7763
▁resolve	-10.7766
▁industries	-10.7771
▁expansion	-10.7789
▁programming	-10.7796
▁exceed	-10.7809
▁loving	-10.781
▁showcase	-10.7816
▁thousand	-10.7834
▁pride	-10.7836
▁ancient	-10.7848
▁Continue	-10.7851
▁comic	-10.7852
Consult	-10.7863
▁allows▁you▁to	-10.7864
▁ensuring	-10.7866
▁gallery	-10.787
▁possibility	-10.7889
▁teaspoon	-10.789
Make▁sure	-10.7896
▁gaming	-10.7898
á	-10.7902
▁Houston	-10.7903
stein	-10.7922
▁porn	-10.7925
▁Administration	-10.7933
▁snack	-10.7934
▁cotton	-10.7934
screen	-10.7936
▁a▁chance▁to	-10.7937
nthusiast	-10.7942
▁Hollywood	-10.7977
▁investigate	-10.7991
▁Arizona	-10.7999
▁Electric	-10.8004
▁pilot	-10.8007
▁drama	-10.8009
▁Brazil	-10.802
▁advisor	-10.8022
▁NFL	-10.8023
▁Economic	-10.8033
▁tackle	-10.8041
▁purchasing	-10.8052
▁swimming	-10.8053
▁bodies	-10.8063
▁Capital	-10.8067
▁is▁expected▁to	-10.8068
▁enroll	-10.8071
▁trigger	-10.8073
▁Spirit	-10.809
▁impossible	-10.809
▁Irish	-10.8095
▁empty	-10.8106
▁Policy	-10.8154
Stay	-10.8158
▁North▁America	-10.8161
▁causing	-10.8167
▁Square	-10.8169
▁succeed	-10.8172
▁packaging	-10.8174
Title	-10.8181
▁comparison	-10.8197
▁ocean	-10.8199
▁extreme	-10.8212
▁provision	-10.8215
Good	-10.8215
fusion	-10.8259
Complete	-10.8259
Description	-10.826
▁introduction	-10.8267
driven	-10.8272
▁minimal	-10.8273
▁Secretary	-10.8288
▁it▁seems	-10.8305
▁as▁long▁as	-10.831
Perhaps	-10.8313
▁wireless	-10.8315
▁knock	-10.8324
▁genuine	-10.8328
▁concrete	-10.8329
▁Magazine	-10.8342
▁definition	-10.8343
▁pricing	-10.8347
▁basketball	-10.8359
▁reducing	-10.8361
▁casual	-10.8367
▁Range	-10.8376
▁align	-10.8379
▁fifth	-10.839
▁compliance	-10.8396
▁vintage	-10.8403
▁resume	-10.8416
credit	-10.8416
▁subscription	-10.8422
▁Theatre	-10.8437
▁Agency	-10.8437
▁inspection	-10.8451
▁default	-10.8456
▁resistance	-10.8462
▁estate	-10.8465
runner	-10.8467
▁fundamental	-10.8478
▁Illinois	-10.8482
▁Harris	-10.8483
▁dimension	-10.8489
▁salad	-10.8497
▁pharmac	-10.8513
▁surprising	-10.8516
▁vocal	-10.8518
▁closing	-10.8529
▁South▁Africa	-10.8533
▁Toronto	-10.8534
Picture	-10.8538
▁forecast	-10.8564
▁the▁importance▁of	-10.857
▁recognition	-10.8572
▁rescue	-10.8573
Everything	-10.8577
▁gentle	-10.8581
▁Living	-10.8599
▁array	-10.86
encing	-10.8611
▁tablespoon	-10.8612
▁brilliant	-10.8612
▁Software	-10.8618
▁framework	-10.8622
special	-10.8631
▁carrier	-10.8637
▁anniversary	-10.8643
▁Kevin	-10.8666
▁consequence	-10.8672
▁evaluation	-10.8673
connect	-10.8685
Option	-10.8699
▁Corporation	-10.8701
▁Spain	-10.8707
▁dealing▁with	-10.8707
▁robot	-10.8712
Safe	-10.8716
▁venture	-10.8719
▁sym	-10.8731
▁scratch	-10.8748
▁sensitive	-10.8751
▁producing	-10.8756
▁Minnesota	-10.876
▁coupon	-10.8765
▁in▁addition▁to	-10.8769
▁compliment	-10.8776
▁integration	-10.8783
▁politics	-10.8785
▁removal	-10.8787
nomic	-10.879
▁empower	-10.8792
Among	-10.8815
ocrat	-10.8816
Install	-10.8817
▁Challenge	-10.8823
Break	-10.883
▁breed	-10.8831
▁primarily	-10.8836
necessarily	-10.8841
People	-10.8843
▁strict	-10.8845
▁Seattle	-10.8854
▁ultra	-10.888
▁Pakistan	-10.8884
▁Joseph	-10.8886
▁elegant	-10.8888
▁Clinic	-10.8904
▁franchise	-10.8906
▁arrival	-10.8909
▁Annual	-10.8928
Chapter	-10.8932
▁analyst	-10.8955
▁Creek	-10.8974
▁scholarship	-10.8977
▁Studies	-10.898
▁aircraft	-10.8987
▁consumption	-10.8993
Explore	-10.9
▁Davis	-10.9002
▁precise	-10.9002
▁superior	-10.9006
▁podcast	-10.9011
while	-10.9015
▁Stephen	-10.9018
▁narrow	-10.9036
▁brew	-10.9036
Have▁you	-10.9039
▁Oregon	-10.9059
▁preparing	-10.906
▁Therefore	-10.9067
▁charity	-10.9089
▁Village	-10.9096
▁Gallery	-10.9101
▁tailor	-10.9101
Official	-10.911
▁zip	-10.9115
▁Batt	-10.9121
▁chopped	-10.9123
Fresh	-10.9131
▁substance	-10.9152
▁acquisition	-10.9157
▁consists▁of	-10.9161
▁satisfaction	-10.9171
▁the▁development▁of	-10.9173
▁pursue	-10.9175
▁preserve	-10.9176
walk	-10.9185
Modern	-10.919
▁Thai	-10.9191
▁correspond	-10.9203
▁pizza	-10.9204
Tech	-10.9206
Below	-10.9209
▁involving	-10.9214
▁for▁more▁information	-10.9214
including	-10.9229
▁Attorney	-10.9233
▁Eastern	-10.9238
▁disaster	-10.9248
▁pandemic	-10.9252
Details	-10.9257
▁opponent	-10.926
▁Memorial	-10.9268
▁renovat	-10.9279
▁certification	-10.9295
Consider	-10.9296
▁Austin	-10.9302
▁entrance	-10.9318
▁danger	-10.9318
▁layout	-10.9331
▁Jewish	-10.9331
▁Egypt	-10.9334
Friday	-10.9341
▁yield	-10.9355
▁jewelry	-10.936
▁Golf	-10.9369
▁assault	-10.9393
Text	-10.9394
▁on▁top▁of	-10.9395
▁residence	-10.9398
▁convenience	-10.9401
▁impression	-10.9407
▁participating	-10.9409
▁Dallas	-10.9411
▁intense	-10.9419
▁scenario	-10.9434
▁New▁Jersey	-10.9435
▁unusual	-10.9439
▁drill	-10.9443
▁visible	-10.9448
▁Dream	-10.9451
▁grateful	-10.9457
▁Columbia	-10.9459
In▁order▁to	-10.946
▁patent	-10.9479
▁Samsung	-10.948
▁intelligence	-10.9485
▁religion	-10.9485
▁Premier	-10.95
Click▁here▁to	-10.9503
▁Iraq	-10.9506
▁vitamin	-10.9507
▁Website	-10.952
▁rival	-10.9532
▁strive	-10.9537
▁ceiling	-10.9541
▁Machine	-10.9545
▁affair	-10.9552
▁mechanism	-10.9553
▁assignment	-10.9556
▁literally	-10.9561
▁substantial	-10.9567
▁the▁beginning▁of	-10.9568
▁acknowledge	-10.9572
Double	-10.9583
▁costume	-10.9584
▁loyal	-10.9584
▁Atlanta	-10.9593
▁analyze	-10.9594
▁Course	-10.9601
▁fraud	-10.9605
▁cruise	-10.9606
▁discipline	-10.9608
▁opposite	-10.961
Close	-10.9611
▁Limited	-10.9617
▁blind	-10.9618
▁anxiety	-10.9631
▁ignore	-10.9646
▁Singapore	-10.9656
▁creativity	-10.9713
▁whilst	-10.9717
▁competitor	-10.9727
▁divorce	-10.973
▁chronic	-10.9739
▁engaging	-10.9743
▁desktop	-10.9751
▁afraid	-10.9755
Present	-10.9761
▁advocate	-10.9763
▁loud	-10.9769
▁reproduc	-10.977
▁prosecut	-10.9773
▁Kansas	-10.9781
▁archive	-10.9786
▁educate	-10.9789
Great	-10.979
▁Ministry	-10.9806
о	-11.0413
ü	-11.045
а	-11.0478
е	-11.0928
£	-11.1049
×	-11.1446
ó	-11.1494
ö	-11.1559
ä	-11.2717
Â	-11.3383
и	-11.3756
^	-11.4084
è	-11.4111
🙂	-11.499
ñ	-11.5935
н	-11.5954
́	-11.5956
т	-11.6333
ا	-11.6376
р	-11.6921
ç	-11.7161
с	-11.7467
в	-11.7499
→	-11.7532
«	-11.8573
ā	-11.8687
à	-11.8727
★	-11.9831
′	-12.0158
к	-12.085
●	-12.0869
л	-12.1165
ل	-12.1573
‚	-12.2343
§	-12.2355
️	-12.2388
п	-12.2971
μ	-12.3235
±	-12.3479
Ã	-12.3524
‐	-12.36
ø	-12.3659
♥	-12.3703
ı	-12.3876
α	-12.4007
д	-12.4007
م	-12.4066
ã	-12.4088
›	-12.4217
ر	-12.431
ô	-12.4329
ú	-12.4419
ن	-12.4492
å	-12.4505
у	-12.4508
м	-12.4547
�	-12.4556
†	-12.4607
¢	-12.5838
😉	-12.5866
É	-12.627
ي	-12.6677
و	-12.6817
„	-12.6904
š	-12.6997
س	-12.7457
ō	-12.7754
ा	-12.7787
ê	-12.8164
я	-12.823
ο	-12.8237
−	-12.8259
►	-12.8387
ت	-12.8392
❤	-12.8536
з	-12.862
ï	-12.8672
ë	-12.8842
ی	-12.891
ب	-12.9074
ь	-12.9341
č	-12.9378
г	-12.9412
د	-12.9557
ы	-12.9562
✔	-12.9718
й	-12.9918
ه	-13.0055
的	-13.0067
。	-13.0209
б	-13.0422
ī	-13.0425
्	-13.0721
œ	-13.0966
ć	-13.098
र	-13.1092
ş	-13.1139
τ	-13.1223
ι	-13.1427
æ	-13.1475
ε	-13.1481
ł	-13.1492
ν	-13.1497
क	-13.1817
і	-13.1986
₹	-13.2198
■	-13.2246
ß	-13.2624
¬	-13.2635
Ö	-13.2645
ū	-13.2943
Ђ	-13.2961
े	-13.3121
✓	-13.3199
ч	-13.3283
¿	-13.3302
β	-13.3532
ع	-13.3591
ी	-13.3873
न	-13.4207
ρ	-13.4242
С	-13.4285
Ø	-13.4286
Ä	-13.4419
σ	-13.4457
―	-13.4534
ف	-13.4585
ك	-13.4612
ğ	-13.4636
Р	-13.4759
ѕ	-13.4809
、	-13.4818
♦	-13.4977
י	-13.5009
😀	-13.5071
ि	-13.5104
κ	-13.5115
π	-13.5152
स	-13.5367
・	-13.5394
】	-13.5543
ー	-13.5556
【	-13.556
त	-13.5609
َ	-13.5676
Ü	-13.5777
υ	-13.5814
ž	-13.5902
î	-13.5971
ə	-13.6066
¥	-13.609
Á	-13.6118
ح	-13.6155
म	-13.6217
λ	-13.6235
ς	-13.6253
↑	-13.6342
ś	-13.6369
✅	-13.6559
Š	-13.6662
ו	-13.6665
☆	-13.6803
ش	-13.6807
ˈ	-13.7267
ð	-13.7359
ج	-13.74
х	-13.7449
¦	-13.745
В	-13.77
ق	-13.7745
ƒ	-13.7822
อ	-13.7847
ж	-13.7874
ה	-13.7985
ц	-13.8134
ं	-13.8134
ē	-13.8151
า	-13.8187
の	-13.8264
ш	-13.8273
ة	-13.8314
น	-13.8503
√	-13.8542
İ	-13.8596
¡	-13.8619
ह	-13.8675
̈	-13.8852
ҽ	-13.8855
▼	-13.8862
ר	-13.8944
П	-13.8953
ă	-13.9087
ک	-13.9228
⭐	-13.9246
ِ	-13.9359
А	-13.9386
य	-13.94
Å	-13.9405
О	-13.9435
ल	-13.9452
≥	-13.9519
≤	-13.9572
प	-13.9604
द	-13.9742
ʻ	-13.9767
ो	-13.9959
😂	-14.0032
文	-14.0184
η	-14.02
ン	-14.025
ý	-14.0274
中	-14.0356
ز	-14.0393
γ	-14.0525
व	-14.0559
Ç	-14.0608
ń	-14.0612
Ó	-14.0667
И	-14.0673
ò	-14.0719
¶	-14.0748
δ	-14.084
}	-14.0868
이	-14.0907
ב	-14.1053
ص	-14.1116
い	-14.1124
▪	-14.1199
đ	-14.1232
ę	-14.1236
←	-14.1283
ì	-14.132
一	-14.1353
û	-14.1487
ɪ	-14.1487
ל	-14.1536
К	-14.1663
Н	-14.1756
大	-14.1834
Т	-14.1912
人	-14.2062
ล	-14.2122
ř	-14.2197
日	-14.2234
ф	-14.2323
ù	-14.2334
지	-14.2558
Ω	-14.2582
ю	-14.2667
̃	-14.2687
̊	-14.2796
Д	-14.2802
ą	-14.2888
א	-14.295
ί	-14.2956
ת	-14.2992
🔥	-14.3086
Г	-14.3293
▲	-14.3306
♡	-14.3348
在	-14.3483
М	-14.3555
מ	-14.3593
ω	-14.3611
ש	-14.3624
ร	-14.3638
し	-14.3693
ě	-14.372
◆	-14.3734
ệ	-14.3761
ط	-14.3934
ά	-14.3945
บ	-14.4106
年	-14.417
ス	-14.4209
ु	-14.4213
😊	-14.456
和	-14.4591
ज	-14.4609
õ	-14.4718
ť	-14.4742
我	-14.4745
Č	-14.481
ब	-14.4847
Е	-14.4867
─	-14.4878
خ	-14.4973
̶	-14.4973
เ	-14.5006
Ž	-14.5031
Б	-14.5062
学	-14.5122
是	-14.5179
✨	-14.5269
щ	-14.5317
█	-14.541
்	-14.5425
θ	-14.5429
ד	-14.5453
ע	-14.5507
ό	-14.5513
ż	-14.5517
Đ	-14.566
φ	-14.567
ė	-14.5724
έ	-14.5797
̧	-14.5804
다	-14.5838
ト	-14.5912
ル	-14.5915
す	-14.5947
有	-14.5948
国	-14.5977
̄	-14.6018
사	-14.6049
한	-14.6051
る	-14.6057
ग	-14.6099
श	-14.6129
ْ	-14.6216
ṣ	-14.6255
ʼ	-14.6266
本	-14.632
😛	-14.632
ま	-14.6361
た	-14.6368
่	-14.6553
Δ	-14.6635
上	-14.6662
て	-14.672
ง	-14.6872
ư	-14.688
¤	-14.6944
ế	-14.6948
ى	-14.695
😍	-14.6955
イ	-14.6998
ん	-14.7014
ṇ	-14.7044
ּ	-14.7161
أ	-14.7166
ม	-14.7206
で	-14.721
に	-14.7216
À	-14.7269
月	-14.7392
ไ	-14.743
子	-14.7499
と	-14.7556
新	-14.7673
च	-14.7701
用	-14.7728
χ	-14.7786
נ	-14.7823
ḥ	-14.7856
Ñ	-14.79
ș	-14.7903
⇒	-14.7925
ُ	-14.8103
া	-14.8119
不	-14.8123
ท	-14.8137
ค	-14.8142
ָ	-14.8209
∙	-14.8224
リ	-14.8228
👉	-14.8228
っ	-14.8272
∠	-14.8314
ส	-14.8316
카	-14.8372
を	-14.8396
Í	-14.8452
➤	-14.8504
∞	-14.8507
な	-14.8519
ั	-14.8626
👍	-14.8673
▶	-14.8733
Ś	-14.8774
り	-14.8779
了	-14.878
ย	-14.8833
「	-14.886
」	-14.8925
У	-14.8979
Ð	-14.9019
э	-14.9044
出	-14.9048
↓	-14.9066
ก	-14.9098
以	-14.911
의	-14.915
भ	-14.9158
기	-14.9167
○	-14.9171
Ε	-14.918
作	-14.9181
،	-14.9238
は	-14.9243
が	-14.9254
🙁	-14.9329
ˆ	-14.9333
ア	-14.9376
Î	-14.9393
ว	-14.9439
ạ	-14.9448
ח	-14.946
ラ	-14.9463
하	-14.9491
์	-14.952
ְ	-14.9533
‡	-14.9589
生	-14.9724
会	-14.9745
Л	-14.9791
🏻	-14.9806
か	-14.9807
ッ	-14.9812
ّ	-14.9844
ट	-14.9848
시	-14.9863
▒	-14.9906
트	-14.9932
리	-14.9938
➡	-14.9983
ɑ	-15.001
行	-15.003
노	-15.0078
ď	-15.009
ี	-15.009
ด	-15.0093
Ş	-15.0102
ː	-15.0104
어	-15.0112
多	-15.0178
美	-15.0252
ˌ	-15.0253
Ł	-15.0257
🙏	-15.0262
う	-15.0267
র	-15.0279
니	-15.0308
گ	-15.0309
￼	-15.0318
✦	-15.0334
Æ	-15.0335
에	-15.038
Ē	-15.0394
🏼	-15.0412
➖	-15.043
ή	-15.0463
☺	-15.0494
ต	-15.0625
스	-15.0634
ク	-15.064
ם	-15.0683
인	-15.0778
≈	-15.0787
法	-15.0869
地	-15.0871
き	-15.0887
כ	-15.0923
Ú	-15.0964
家	-15.1033
分	-15.1109
👇	-15.1123
く	-15.1133
ड	-15.1188
小	-15.119
者	-15.1215
็	-15.1267
可	-15.1271
英	-15.1285
能	-15.1364
😦	-15.1378
্	-15.1417
Ā	-15.1467
ি	-15.1506
З	-15.1518
ộ	-15.153
♪	-15.154
⃣	-15.1542
₱	-15.1561
ै	-15.1586
♀	-15.1608
更	-15.163
ন	-15.1681
ַ	-15.1754
♫	-15.178
ら	-15.18
最	-15.1801
版	-15.1811
😁	-15.1816
💖	-15.1819
아	-15.1861
Σ	-15.1876
も	-15.1896
로	-15.1937
پ	-15.1965
ќ	-15.1981
公	-15.1982
ё	-15.2067
Ō	-15.2174
ק	-15.2204
ִ	-15.2209
Α	-15.2234
之	-15.2237
お	-15.2252
时	-15.2258
÷	-15.226
ÿ	-15.2401
要	-15.2416
њ	-15.2433
💕	-15.2434
神	-15.2471
आ	-15.2511
अ	-15.2518
︎	-15.2552
‰	-15.2619
ő	-15.2625
ض	-15.2663
下	-15.2705
🇸	-15.2706
ி	-15.2709
ิ	-15.2712
語	-15.2739
้	-15.28
カ	-15.2804
天	-15.2812
ả	-15.2819
‹	-15.2828
※	-15.2837
⋅	-15.2855
는	-15.2895
ύ	-15.2897
期	-15.291
✈	-15.2994
到	-15.3006
þ	-15.301
ů	-15.3011
ए	-15.3016
‧	-15.3107
‒	-15.311
◦	-15.3135
教	-15.3212
ド	-15.3232
🤣	-15.3239
↩	-15.3247
가	-15.3297
대	-15.3306
│	-15.3329
》	-15.3332
∼	-15.3335
서	-15.34
ț	-15.3411
غ	-15.3414
第	-15.3522
̆	-15.3533
工	-15.3536
⠀	-15.3541
レ	-15.3541
।	-15.3617
方	-15.3621
体	-15.3627
국	-15.3633
🇺	-15.3633
Ô	-15.3644
라	-15.3705
为	-15.3732
れ	-15.3747
수	-15.3816
แ	-15.3832
信	-15.3837
일	-15.3838
マ	-15.3844
来	-15.3851
제	-15.3934
高	-15.3947
こ	-15.3962
ू	-15.4035
토	-15.4053
ɛ	-15.4174
═	-15.4232
Ė	-15.4263
个	-15.4279
三	-15.4286
成	-15.4288
⚠	-15.4295
《	-15.4297
을	-15.437
ṭ	-15.4391
他	-15.4486
├	-15.4505
ἐ	-15.4528
ṛ	-15.4579
ȧ	-15.462
自	-15.462
전	-15.4623
ห	-15.4627
发	-15.464
あ	-15.4645
ث	-15.4648
ध	-15.4714
פ	-15.4721
ظ	-15.4723
ן	-15.4732
さ	-15.4756
È	-15.4757
心	-15.4759
്	-15.4785
∎	-15.4799
ष	-15.4802
고	-15.482
آ	-15.4851
◈	-15.4856
全	-15.4863
女	-15.4864
主	-15.4864
所	-15.4871
タ	-15.4874
🏾	-15.4875
ジ	-15.4881
🌟	-15.4884
▾	-15.4887
ে	-15.4955
Ă	-15.496
Φ	-15.4975
部	-15.4988
市	-15.4989
北	-15.4994
💜	-15.5005
✿	-15.5013
마	-15.507
ậ	-15.5091
ʊ	-15.5106
☀	-15.5109
◊	-15.5112
目	-15.5117
ہ	-15.5208
ט	-15.5209
ņ	-15.5235
み	-15.5249
🎉	-15.5258
โ	-15.5345
Ч	-15.5346
요	-15.5347
ấ	-15.5357
⚡	-15.5363
정	-15.5457
비	-15.5468
ण	-15.5469
ئ	-15.5471
為	-15.5481
事	-15.5487
І	-15.5496
ء	-15.5508
们	-15.561
🙌	-15.5623
合	-15.5624
♣	-15.5625
👏	-15.5629
إ	-15.5635
ώ	-15.5735
Þ	-15.574
̋	-15.5749
フ	-15.575
京	-15.5762
ব	-15.5843
ক	-15.5847
山	-15.5873
Ф	-15.5873
海	-15.5882
网	-15.5882
த	-15.5883
ు	-15.5884
シ	-15.5886
物	-15.5889
性	-15.5999
手	-15.601
ブ	-15.6012
🏽	-15.6019
名	-15.6021
电	-15.6026
Я	-15.6114
소	-15.6114
‣	-15.6118
Κ	-15.6131
好	-15.6133
Π	-15.6135
这	-15.6139
ம	-15.6142
ớ	-15.6265
க	-15.6269
電	-15.6272
相	-15.6284
ố	-15.6284
通	-15.6291
ィ	-15.6297
ג	-15.634
ے	-15.6399
자	-15.6402
品	-15.6409
前	-15.6416
∆	-15.6431
◄	-15.6438
ơ	-15.6534
Γ	-15.6539
ख	-15.6545
❄	-15.6564
ち	-15.657
😎	-15.6572
♂	-15.6578
드	-15.6657
ј	-15.6684
于	-15.6711
़	-15.6717
☛	-15.6731
ֶ	-15.6794
道	-15.6814
時	-15.6823
台	-15.6841
同	-15.6849
间	-15.6852
ầ	-15.6853
주	-15.6853
ס	-15.6942
果	-15.6983
ป	-15.6984
バ	-15.6985
代	-15.7002
🌸	-15.7021
ọ	-15.7132
ذ	-15.7137
コ	-15.7144
表	-15.7144
明	-15.7147
得	-15.7149
ї	-15.7149
入	-15.7152
☑	-15.7155
デ	-15.7159
究	-15.717
❶	-15.7223
ך	-15.7266
Τ	-15.728
理	-15.7292
利	-15.7294
位	-15.7297
语	-15.7299
プ	-15.731
ロ	-15.7311
テ	-15.7313
キ	-15.732
ღ	-15.7329
ъ	-15.7432
इ	-15.7434
外	-15.7445
😭	-15.7453
體	-15.7457
水	-15.7457
😘	-15.747
━	-15.7479
使	-15.7579
Ш	-15.7597
ị	-15.7601
二	-15.7601
ų	-15.7611
社	-15.7612
學	-15.7615
定	-15.7618
Ê	-15.762
业	-15.7623
系	-15.7631
研	-15.7634
ׁ	-15.7676
나	-15.7725
보	-15.7726
🚀	-15.774
һ	-15.7746
金	-15.7757
科	-15.7775
□	-15.7777
ム	-15.778
₩	-15.7792
ź	-15.7794
ত	-15.7907
학	-15.7909
Ο	-15.7913
提	-15.7926
ờ	-15.7927
内	-15.7929
ュ	-15.7941
∗	-15.7942
➜	-15.7946
音	-15.7953
建	-15.7961
就	-15.8049
은	-15.8061
星	-15.8068
도	-15.8071
장	-15.8075
如	-15.8078
力	-15.8082
西	-15.809
ợ	-15.8091
😆	-15.8094
Μ	-15.8094
✕	-15.8099
ニ	-15.81
성	-15.8101
由	-15.8101
▬	-15.8103
ɒ	-15.8104
真	-15.8236
➢	-15.825
̇	-15.8258
⦁	-15.8264
Ż	-15.8265
☎	-15.8302
ể	-15.8405
Х	-15.841
ĭ	-15.8413
正	-15.842
メ	-15.8425
平	-15.8425
ா	-15.8427
₦	-15.8428
特	-15.8431
服	-15.8434
🤔	-15.8435
店	-15.8442
🤩	-15.846
ề	-15.8594
్	-15.8594
式	-15.8599
王	-15.8601
Λ	-15.861
중	-15.8764
🚨	-15.8768
✧	-15.877
加	-15.877
香	-15.8777
原	-15.8777
だ	-15.8777
意	-15.8779
ʃ	-15.8782
简	-15.8787
ウ	-15.8794
司	-15.8801
ֹ	-15.8905
Ě	-15.8922
而	-15.8923
Ë	-15.8931
ম	-15.8936
◾	-15.8941
南	-15.8948
商	-15.8948
พ	-15.8952
ุ	-15.8955
Ï	-15.8958
👌	-15.8959
😄	-15.8963
Ḥ	-15.8963
ţ	-15.8966
Ι	-15.8967
ャ	-15.8976
及	-15.8978
관	-15.8981
ז	-15.9094
무	-15.9101
度	-15.911
안	-15.9115
見	-15.9118
与	-15.9128
都	-15.913
ʿ	-15.9132
♠	-15.9134
‟	-15.9135
士	-15.9137
近	-15.9139
路	-15.9141
字	-15.9142
ŏ	-15.9145
め	-15.9146
動	-15.9146
后	-15.9149
元	-15.9155
💃	-15.9155
를	-15.9292
จ	-15.9296
旅	-15.9312
오	-15.9313
間	-15.9317
开	-15.9319
十	-15.9327
光	-15.9481
也	-15.9489
원	-15.95
ு	-15.9512
ξ	-15.9513
ക	-15.9518
Õ	-15.9522
州	-15.9534
▧	-15.9554
ᄏ	-15.9564
面	-15.9673
サ	-15.9676
প	-15.9677
ễ	-15.9686
化	-15.9688
ň	-15.9694
ু	-15.9695
🎶	-15.9695
ப	-15.9696
📷	-15.9703
解	-15.9705
ナ	-15.9707
🌿	-15.9707
放	-15.9707
现	-15.9715
ɔ	-15.9715
⇓	-15.9724
្	-15.973
য	-15.9862
과	-15.9871
थ	-15.988
💚	-15.9882
ู	-15.9882
್	-15.9889
四	-15.9892
國	-15.9892
ะ	-15.9892
比	-15.9895
❖	-15.9897
里	-15.9897
🌈	-15.9897
✌	-15.9898
グ	-15.9906
💗	-15.9907
ി	-15.991
育	-15.9921
ई	-16.0062
신	-16.0065
해	-16.0083
Э	-16.0084
安	-16.0095
東	-16.0096
花	-16.0098
パ	-16.0099
ļ	-16.0101
ツ	-16.0107
💥	-16.0109
ビ	-16.0111
务	-16.0113
よ	-16.0116
程	-16.0117
צ	-16.0258
ζ	-16.0279
保	-16.0285
個	-16.0287
會	-16.0291
작	-16.0291
林	-16.0306
ὸ	-16.0306
集	-16.0306
於	-16.0309
🏆	-16.031
료	-16.0486
图	-16.0489
重	-16.0493
世	-16.0494
계	-16.0502
过	-16.0508
ں	-16.0509
え	-16.0509
机	-16.0514
✪	-16.0517
博	-16.0523
せ	-16.0526
ゃ	-16.053
〉	-16.0531
院	-16.0533
✖	-16.0534
구	-16.0714
界	-16.0717
습	-16.0722
件	-16.0722
料	-16.0727
❌	-16.0729
ῦ	-16.0729
起	-16.0734
ノ	-16.0734
や	-16.0735
👑	-16.074
ἀ	-16.0741
创	-16.0749
酒	-16.0754
✰	-16.0779
ľ	-16.0909
你	-16.0924
ল	-16.0928
け	-16.0929
知	-16.0931
크	-16.0938
💰	-16.094
经	-16.0941
ắ	-16.0941
号	-16.0943
저	-16.0944
管	-16.0945
介	-16.0946
💪	-16.095
言	-16.0956
♬	-16.0964
限	-16.0964
這	-16.1071
루	-16.1118
়	-16.1129
फ	-16.1133
є	-16.1137
ர	-16.1154
ల	-16.1159
其	-16.1162
此	-16.1165
💛	-16.117
オ	-16.1172
메	-16.1173
制	-16.1174
ῖ	-16.1175
💙	-16.1193
ា	-16.12
ृ	-16.1321
🇦	-16.1338
부	-16.134
모	-16.1352
✳	-16.1353
여	-16.1356
情	-16.1359
출	-16.1383
ủ	-16.1384
等	-16.1387
区	-16.1395
亚	-16.1401
포	-16.1404
😜	-16.141
ǂ	-16.1412
华	-16.1419
₪	-16.1421
們	-16.1529
ʹ	-16.1592
공	-16.1612
助	-16.1619
⬇	-16.1623
་	-16.1627
چ	-16.1629
空	-16.1631
游	-16.1632
次	-16.1633
🎁	-16.1639
ข	-16.1845
ి	-16.1846
機	-16.1848
您	-16.1852
Β	-16.1855
▸	-16.186
∑	-16.187
八	-16.1871
฿	-16.1879
😳	-16.1879
ǐ	-16.1883
🇨	-16.2043
দ	-16.207
城	-16.2078
Й	-16.208
ื	-16.2084
百	-16.2084
바	-16.2084
화	-16.2086
頁	-16.2089
우	-16.209
基	-16.2092
彩	-16.2094
🌎	-16.2096
華	-16.2097
ํ	-16.2098
স	-16.2098
ồ	-16.2099
ర	-16.2108
ど	-16.211
ა	-16.2114
ダ	-16.2122
ֵ	-16.2292
औ	-16.2339
ھ	-16.2339
今	-16.234
题	-16.234
😅	-16.2341
ở	-16.2345
있	-16.2347
Ж	-16.2353
港	-16.2355
ட	-16.2355
ʌ	-16.2359
체	-16.2359
つ	-16.236
🤗	-16.2361
关	-16.2363
👀	-16.2363
ǎ	-16.2365
∫	-16.2366
乐	-16.237
肉	-16.2379
🇪	-16.2565
ў	-16.2573
布	-16.2598
̓	-16.2602
與	-16.2609
먹	-16.2609
Ц	-16.261
立	-16.261
🇬	-16.2611
线	-16.2612
数	-16.2614
川	-16.2622
ɡ	-16.2623
🎄	-16.2624
ὶ	-16.2627
發	-16.2628
월	-16.2628
注	-16.2637
ɾ	-16.2654
세	-16.2839
ḍ	-16.285
Œ	-16.2853
ช	-16.2859
̅	-16.2862
着	-16.2863
对	-16.2869
최	-16.2871
常	-16.2878
繁	-16.2879
或	-16.2881
Ν	-16.2881
少	-16.2885
任	-16.2897
田	-16.2901
교	-16.292
💯	-16.2926
қ	-16.307
晚	-16.311
ٌ	-16.3111
문	-16.312
克	-16.3126
미	-16.3132
後	-16.3136
站	-16.3137
感	-16.3139
❣	-16.3141
友	-16.3144
口	-16.3145
点	-16.3147
ი	-16.3153
Ū	-16.3158
ょ	-16.3158
재	-16.3158
ษ	-16.3158
ミ	-16.316
💋	-16.3165
년	-16.3166
格	-16.3168
🔹	-16.317
师	-16.3174
她	-16.3182
∘	-16.3182
간	-16.3394
운	-16.3395
유	-16.3401
馬	-16.3405
उ	-16.3407
ʒ	-16.3409
專	-16.3409
ன	-16.341
微	-16.3414
튀	-16.342
🌞	-16.3423
画	-16.3424
打	-16.3425
影	-16.3427
容	-16.3431
ハ	-16.3432
⚫	-16.3433
💦	-16.3434
≠	-16.3435
志	-16.3436
论	-16.3437
̨	-16.3439
👋	-16.3439
ภ	-16.344
ズ	-16.3449
✘	-16.3455
村	-16.3625
파	-16.3674
싸	-16.3681
치	-16.3683
愛	-16.3685
计	-16.3689
용	-16.3691
வ	-16.3691
从	-16.3695
無	-16.37
Η	-16.3701
風	-16.3701
授	-16.3703
開	-16.3703
◎	-16.3706
ガ	-16.3707
进	-16.3709
✭	-16.3711
🇧	-16.3714
증	-16.3718
😱	-16.372
技	-16.3724
🌻	-16.3727
📸	-16.373
例	-16.3737
រ	-16.375
ന	-16.3849
프	-16.3967
住	-16.3969
🇳	-16.398
터	-16.3981
▂	-16.3983
Ь	-16.3987
录	-16.3992
書	-16.4
种	-16.4003
接	-16.4003
ĕ	-16.4004
☕	-16.4007
ψ	-16.4007
💡	-16.4009
費	-16.4013
书	-16.4016
😋	-16.4023
😃	-16.404
그	-16.4276
清	-16.4284
ः	-16.4297
명	-16.4299
色	-16.43
无	-16.4301
동	-16.4302
☞	-16.4302
読	-16.4303
五	-16.4303
❥	-16.4303
配	-16.4303
✮	-16.4305
斯	-16.4306
Û	-16.431
展	-16.4311
ボ	-16.4312
そ	-16.4315
チ	-16.4318
客	-16.4319
ழ	-16.4328
医	-16.4331
으	-16.4558
Ṣ	-16.4558
면	-16.4574
活	-16.4577
很	-16.4579
受	-16.4583
롱	-16.4583
강	-16.4584
└	-16.4588
개	-16.4589
気	-16.4593
슈	-16.4595
ಿ	-16.4596
선	-16.4596
🇮	-16.4597
セ	-16.46
회	-16.4606
論	-16.4607
상	-16.4611
已	-16.4613
ワ	-16.4615
ా	-16.4615
來	-16.4616
形	-16.4622
马	-16.4622
官	-16.4622
設	-16.4624
话	-16.4624
エ	-16.4626
源	-16.4627
专	-16.4632
每	-16.4635
〈	-16.4639
🌱	-16.464
들	-16.4889
와	-16.4895
精	-16.49
ச	-16.4912
身	-16.4925
太	-16.4927
『	-16.4928
』	-16.4928
長	-16.4929
ổ	-16.4929
联	-16.493
宿	-16.4931
Ò	-16.4932
現	-16.4938
陳	-16.4939
请	-16.4942
老	-16.4943
Ý	-16.4945
じ	-16.4947
記	-16.4948
回	-16.4949
Υ	-16.4951
モ	-16.4952
术	-16.4953
🖤	-16.4953
🍃	-16.4954
ろ	-16.4955
证	-16.4962
ន	-16.4962
త	-16.4963
Ì	-16.4963
ʺ	-16.4967
む	-16.4968
̵	-16.4969
夏	-16.4992
ാ	-16.5044
ു	-16.5142
Θ	-16.5231
夜	-16.5233
풀	-16.524
樂	-16.5244
Ĺ	-16.5254
ũ	-16.5263
わ	-16.5265
ం	-16.5266
德	-16.5268
්	-16.5269
ல	-16.5269
방	-16.527
천	-16.5271
野	-16.5272
‖	-16.5274
看	-16.5274
검	-16.5279
영	-16.5281
资	-16.5282
供	-16.5283
尼	-16.5284
聽	-16.5286
先	-16.5286
ǔ	-16.5288
✍	-16.5288
阿	-16.5291
📣	-16.5297
⦿	-16.5298
广	-16.53
✯	-16.5305
조	-16.5588
周	-16.5591
べ	-16.5595
Χ	-16.5596
ක	-16.5598
算	-16.5601
然	-16.5601
ħ	-16.5602
게	-16.5602
結	-16.5608
将	-16.5609
類	-16.5611
设	-16.5611
場	-16.5613
ὴ	-16.5613
Ѓ	-16.5615
词	-16.5615
į	-16.5619
Ć	-16.562
🎨	-16.5621
단	-16.5623
▷	-16.5625
🥰	-16.5625
始	-16.5626
投	-16.5626
型	-16.5626
巴	-16.5627
ポ	-16.5628
▽	-16.563
◇	-16.563
ٹ	-16.5632
交	-16.5636
題	-16.5651
ស	-16.5655
𐑯	-16.5886
분	-16.592
档	-16.592
합	-16.5943
消	-16.5948
动	-16.5951
Ы	-16.5951
퍼	-16.5954
那	-16.5955
┬	-16.5959
丹	-16.5961
ි	-16.5965
何	-16.5966
計	-16.5969
ứ	-16.597
九	-16.597
持	-16.5971
息	-16.5971
超	-16.5971
ụ	-16.5973
ケ	-16.5974
夫	-16.5975
爱	-16.5975
Ÿ	-16.5976
🇷	-16.5977
ョ	-16.5977
取	-16.598
ự	-16.5984
易	-16.5986
白	-16.5986
🐶	-16.5986
資	-16.5989
功	-16.599
將	-16.5991
↵	-16.5993
̲	-16.6005
尔	-16.6008
詞	-16.6011
Џ	-16.6014
박	-16.6018
ԁ	-16.6276
必	-16.6284
🔗	-16.629
적	-16.6295
জ	-16.6303
造	-16.6303
ো	-16.6303
些	-16.6309
ய	-16.6319
◉	-16.6321
छ	-16.6324
గ	-16.6326
≫	-16.6327
ฟ	-16.6329
拉	-16.6331
চ	-16.6332
六	-16.6337
園	-16.6339
✩	-16.6339
收	-16.634
➕	-16.6342
ѵ	-16.6343
写	-16.6343
指	-16.6344
ベ	-16.6345
답	-16.6345
ผ	-16.6345
연	-16.6347
ठ	-16.6348
因	-16.6348
ŋ	-16.6348
紀	-16.6349
支	-16.6349
호	-16.6349
ネ	-16.635
送	-16.6351
ँ	-16.6352
想	-16.6353
현	-16.6353
김	-16.6353
包	-16.6355
页	-16.6358
츠	-16.6359
流	-16.6368
📝	-16.637
洲	-16.6371
么	-16.6371
숙	-16.6372
۱	-16.6376
🌺	-16.6378
░	-16.6386
ក	-16.6393
티	-16.6663
從	-16.6673
◼	-16.6688
피	-16.6705
思	-16.6705
초	-16.6708
整	-16.6712
附	-16.6712
模	-16.6713
智	-16.6713
더	-16.6714
男	-16.6717
門	-16.6721
ʾ	-16.6725
మ	-16.6731
😢	-16.6733
금	-16.6733
🌹	-16.6733
క	-16.6733
当	-16.6733
術	-16.6734
江	-16.6734
❯	-16.6735
ῆ	-16.6736
食	-16.6737
ె	-16.6739
絵	-16.6739
ড	-16.6741
载	-16.6741
న	-16.6742
員	-16.6742
ữ	-16.6744
血	-16.6744
ـ	-16.6747
ǒ	-16.6754
室	-16.6755
➠	-16.6777
육	-16.6803
গ	-16.7073
命	-16.7079
শ	-16.7084
내	-16.7098
ṅ	-16.7101
快	-16.7108
草	-16.7111
러	-16.7115
號	-16.7117
量	-16.7126
산	-16.7127
만	-16.7127
業	-16.7128
器	-16.7128
描	-16.7129
各	-16.7131
儿	-16.7131
ね	-16.7131
首	-16.7132
🦋	-16.7132
告	-16.7133
鈥	-16.7134
👻	-16.7136
🎵	-16.7138
💻	-16.7138
宝	-16.7138
❗	-16.714
款	-16.7141
说	-16.7143
免	-16.7144
际	-16.7145
见	-16.7146
ನ	-16.7146
📌	-16.7151
☼	-16.7151
屋	-16.7158
🍀	-16.716
ប	-16.7172
യ	-16.7344
ピ	-16.7453
导	-16.7469
↔	-16.7475
⌘	-16.7517
생	-16.7519
板	-16.7522
예	-16.7524
向	-16.7528
張	-16.7528
准	-16.7529
脑	-16.7532
门	-16.7532
引	-16.7537
ὰ	-16.754
對	-16.754
Ḳ	-16.7541
후	-16.7544
📚	-16.7544
结	-16.7547
위	-16.7547
♯	-16.7547
ถ	-16.7547
直	-16.7548
只	-16.7552
备	-16.7554
⚽	-16.7556
青	-16.756
ű	-16.7561
才	-16.7563
ṃ	-16.7567
ॐ	-16.7568
员	-16.7571
△	-16.7571
ម	-16.7573
ŭ	-16.758
❁	-16.7581
ಥ	-16.7877
𐑑	-16.7893
龍	-16.7952
온	-16.7953
♊	-16.7954
ṁ	-16.7958
및	-16.7959
该	-16.7959
妈	-16.7959
經	-16.7963
丽	-16.7964
歌	-16.7965
▻	-16.7967
ˇ	-16.7968
버	-16.7968
至	-16.7968
進	-16.797
๊	-16.7972
角	-16.7975
修	-16.7975
族	-16.7977
健	-16.7977
運	-16.7977
登	-16.7978
寺	-16.7981
ヤ	-16.7982
达	-16.7982
去	-16.7983
列	-16.7986
共	-16.7986
ɹ	-16.7988
考	-16.7988
火	-16.799
球	-16.7991
木	-16.7991
げ	-16.7995
☠	-16.7995
∈	-16.7996
🎮	-16.7997
ᅠ	-16.7998
🥊	-16.8
艺	-16.8001
へ	-16.8008
┊	-16.8023
ര	-16.8329
𐑦	-16.8349
罗	-16.8368
肖	-16.838
片	-16.8397
🤷	-16.8398
╮	-16.8401
民	-16.8401
코	-16.8404
島	-16.841
ள	-16.8411
气	-16.8413
李	-16.8416
ば	-16.8418
디	-16.8419
照	-16.8421
参	-16.8421
典	-16.8421
巨	-16.8423
레	-16.8424
ὲ	-16.8425
ස	-16.8425
骨	-16.8425
傳	-16.8426
⏰	-16.8428
過	-16.8429
河	-16.8431
样	-16.8433
材	-16.8434
场	-16.8436
ふ	-16.8439
需	-16.8439
≪	-16.844
々	-16.8441
ಕ	-16.8442
야	-16.8443
并	-16.8443
ặ	-16.8443
问	-16.8444
长	-16.8448
추	-16.8451
😈	-16.8453
产	-16.8453
ゅ	-16.8455
波	-16.8455
統	-16.8458
║	-16.8458
编	-16.8458
完	-16.8461
病	-16.8466
∂	-16.8471
刊	-16.8476
👤	-16.8485
വ	-16.8706
𐑕	-16.8823
並	-16.8857
업	-16.8865
🔸	-16.8881
책	-16.8888
己	-16.889
油	-16.8891
Ρ	-16.8891
毒	-16.8893
ರ	-16.8894
න	-16.8894
진	-16.8895
🥇	-16.8898
东	-16.8898
対	-16.8902
佳	-16.8904
石	-16.8905
复	-16.8906
深	-16.8908
被	-16.8908
但	-16.8908
级	-16.8909
蔡	-16.8909
👨	-16.8912
օ	-16.8912
示	-16.8913
春	-16.8913
篇	-16.8914
追	-16.8914
℗	-16.8915
話	-16.8916
Ù	-16.8917
😩	-16.8918
💎	-16.892
玉	-16.8921
ァ	-16.8921
ェ	-16.8922
🥂	-16.8923
ὁ	-16.8924
師	-16.8926
破	-16.8926
🎃	-16.8928
贸	-16.8929
🚚	-16.8932
ɐ	-16.8932
ὐ	-16.8935
故	-16.8935
❀	-16.8937
💨	-16.894
统	-16.8941
植	-16.8942
获	-16.8946
治	-16.8947
松	-16.8951
∨	-16.8952
ട	-16.9165
ট	-16.9359
切	-16.9371
福	-16.9375
薄	-16.9376
ѓ	-16.9383
选	-16.9383
喜	-16.9384
著	-16.9386
選	-16.939
ර	-16.9391
做	-16.9395
念	-16.9396
应	-16.9396
ව	-16.9402
堂	-16.9404
芳	-16.9406
遊	-16.941
ე	-16.9411
ỉ	-16.9411
Ộ	-16.9411
存	-16.9413
္	-16.9416
님	-16.9416
土	-16.9417
章	-16.9417
✊	-16.942
వ	-16.9421
ნ	-16.9421
悉	-16.9422
武	-16.9423
Ď	-16.9424
ђ	-16.9424
座	-16.9424
☝	-16.9427
び	-16.9427
翻	-16.9428
報	-16.943
黄	-16.9431
😏	-16.9433
车	-16.9434
🌏	-16.9436
评	-16.9437
房	-16.944
🟩	-16.944
💬	-16.9442
走	-16.9443
🎈	-16.9455
ത	-16.9682
취	-16.9841
ം	-16.9851
溫	-16.9865
ণ	-16.9882
타	-16.9905
ใ	-16.9906
製	-16.9907
ᥙ	-16.9909
域	-16.991
당	-16.9911
達	-16.9912
♍	-16.9915
╰	-16.9918
ই	-16.9919
📍	-16.992
播	-16.9925
街	-16.9925
置	-16.9928
ץ	-16.993
통	-16.9932
ौ	-16.9932
ढ	-16.9934
실	-16.9934
丁	-16.9935
🔴	-16.9935
🙈	-16.9935
♭	-16.9935
ῷ	-16.9936
घ	-16.9937
ා	-16.9937
💸	-16.9938
局	-16.9939
🔔	-16.994
决	-16.994
ண	-16.9941
洋	-16.9942
报	-16.9942
📱	-16.9943
再	-16.9943
母	-16.9943
似	-16.9943
ザ	-16.9945
约	-16.9945
🎯	-16.9945
Ѕ	-16.9945
킹	-16.9946
讲	-16.9947
普	-16.9947
ɜ	-16.9947
ً	-16.9948
初	-16.995
ἔ	-16.9951
ա	-16.9952
🙄	-16.9952
∮	-16.9954
請	-16.9956
根	-16.9958
密	-16.9958
兰	-16.9959
💫	-16.9962
⚓	-16.9963
团	-16.9968
ǝ	-16.9978
⇑	-16.9981
😹	-17.014
പ	-17.0288
역	-17.0396
𐑧	-17.0399
町	-17.0403
할	-17.0424
ভ	-17.0448
🤑	-17.0451
步	-17.0453
격	-17.0462
千	-17.0463
览	-17.0467
止	-17.0471
没	-17.0472
남	-17.0473
古	-17.0474
झ	-17.0474
브	-17.0476
點	-17.0481
乳	-17.0482
আ	-17.0482
🇭	-17.0483
ߋ	-17.0484
ಾ	-17.0485
⊙	-17.0486
ந	-17.0487
♈	-17.0492
≡	-17.0492
➔	-17.0495
政	-17.0495
거	-17.0495
午	-17.0496
ペ	-17.0497
배	-17.0499
ս	-17.0499
龙	-17.0501
🙋	-17.0503
問	-17.0503
۪	-17.0504
백	-17.0504
父	-17.0505
办	-17.0506
👎	-17.0508
発	-17.0508
澳	-17.051
ἰ	-17.0511
ご	-17.0512
👆	-17.0512
৳	-17.0514
📦	-17.0516
권	-17.0516
规	-17.0517
ត	-17.0517
🧡	-17.0518
总	-17.0521
玩	-17.0523
梅	-17.0523
單	-17.0528
温	-17.053
ង	-17.0544
മ	-17.0959
泉	-17.1014
✽	-17.1037
본	-17.1043
♋	-17.1045
實	-17.1045
☚	-17.1046
되	-17.1048
粉	-17.1048
班	-17.1053
又	-17.1053
飛	-17.1055
হ	-17.1055
페	-17.1057
⋆	-17.1057
♏	-17.1057
非	-17.1058
᧐	-17.1059
牌	-17.1063
茶	-17.1064
沙	-17.1064
增	-17.1065
ල	-17.1066
构	-17.1066
입	-17.1067
令	-17.107
ḷ	-17.1071
衣	-17.1072
像	-17.1072
恩	-17.1072
雄	-17.1073
君	-17.1074
람	-17.1074
ற	-17.1075
峰	-17.1075
매	-17.1076
ᐈ	-17.1077
熱	-17.1077
ს	-17.1078
🍓	-17.1079
목	-17.1081
什	-17.1081
없	-17.1084
🤦	-17.1085
ỗ	-17.1087
皇	-17.1089
რ	-17.1089
标	-17.1089
눉	-17.1089
✒	-17.1091
童	-17.1092
读	-17.1092
威	-17.1093
🌍	-17.1094
😮	-17.1094
👊	-17.1095
它	-17.1096
⁃	-17.1098
😐	-17.1099
米	-17.1099
✉	-17.11
ን	-17.1101
📲	-17.1101
望	-17.1103
ῶ	-17.1103
址	-17.1103
聞	-17.1104
訳	-17.1108
案	-17.1108
索	-17.1109
别	-17.1109
射	-17.111
ʇ	-17.111
參	-17.111
麦	-17.1119
項	-17.1122
ե	-17.1128
🌠	-17.1135
課	-17.1136
℧	-17.1157
┃	-17.1614
拍	-17.1621
膜	-17.1646
☯	-17.1648
景	-17.1649
裝	-17.1649
善	-17.165
跑	-17.1653
ซ	-17.1653
別	-17.1666
鬼	-17.1667
ओ	-17.1671
ẵ	-17.1672
건	-17.1673
ʀ	-17.1676
苹	-17.1676
ٱ	-17.1677
曲	-17.1686
ڈ	-17.1686
欢	-17.1686
演	-17.1688
స	-17.1689
饰	-17.1692
习	-17.1692
😔	-17.1692
试	-17.1692
荷	-17.1695
头	-17.1696
眼	-17.1696
ය	-17.1696
♓	-17.1696
🇲	-17.1696
래	-17.1697
史	-17.1698
视	-17.1699
探	-17.17
맞	-17.1701
션	-17.1702
↳	-17.1702
素	-17.1703
跟	-17.1704
嚴	-17.1706
尚	-17.1708
校	-17.1708
♐	-17.1708
즈	-17.1709
印	-17.1709
装	-17.171
趣	-17.1711
📖	-17.1711
ユ	-17.1712
경	-17.1712
康	-17.1712
奖	-17.1714
👈	-17.1715
范	-17.1716
ప	-17.1718
假	-17.1718
休	-17.1718
👩	-17.1718
良	-17.1722
続	-17.1723
🌼	-17.1724
独	-17.1725
關	-17.1725
ừ	-17.1725
ছ	-17.1727
费	-17.1727
短	-17.1727
☽	-17.1729
🙃	-17.173
∴	-17.1731
项	-17.1731
ử	-17.1734
ゆ	-17.1735
團	-17.1735
境	-17.1738
七	-17.1738
ុ	-17.1739
🇵	-17.174
◪	-17.1741
价	-17.1741
ી	-17.178
ા	-17.1821
ോ	-17.2161
裡	-17.2246
ெ	-17.2307
狗	-17.2309
직	-17.2317
데	-17.2319
壓	-17.2323
ು	-17.2335
應	-17.2337
姑	-17.2338
💓	-17.2341
ை	-17.2347
魔	-17.2348
능	-17.2348
孩	-17.2348
测	-17.2349
黃	-17.235
♑	-17.2351
̱	-17.2353
漫	-17.2355
即	-17.2356
🥳	-17.2357
備	-17.2357
̀	-17.2357
按	-17.2358
송	-17.2359
連	-17.236
岛	-17.2362
임	-17.2363
🎰	-17.2364
待	-17.2364
实	-17.2364
井	-17.2364
➣	-17.2366
尾	-17.2366
楼	-17.2367
발	-17.2372
希	-17.2373
反	-17.2373
🤤	-17.2373
改	-17.2373
🏿	-17.2374
ĩ	-17.2375
🌊	-17.2375
✗	-17.2376
象	-17.2376
推	-17.2378
∩	-17.2378
森	-17.2379
ソ	-17.2379
灣	-17.238
致	-17.2382
😲	-17.2382
Ř	-17.2383
ẓ	-17.2383
◯	-17.2383
朋	-17.2383
颅	-17.2383
私	-17.2384
ぼ	-17.2384
₤	-17.2385
均	-17.2385
習	-17.2385
味	-17.2387
验	-17.2388
雪	-17.2388
ķ	-17.2389
吗	-17.2389
季	-17.2389
🤭	-17.239
译	-17.2393
🍻	-17.2393
付	-17.2394
ო	-17.2394
數	-17.2395
☏	-17.2395
药	-17.2395
📺	-17.2395
😇	-17.2395
🎥	-17.2395
▔	-17.2395
☐	-17.2397
💩	-17.2398
🔒	-17.2398
⟶	-17.2399
🗣	-17.2402
館	-17.2402
顺	-17.2402
Ḩ	-17.2405
歯	-17.2408
✂	-17.2414
委	-17.2414
អ	-17.243
✝	-17.2443
宁	-17.245
സ	-17.2767
ള	-17.2927
匁	-17.296
ĸ	-17.2984
🍑	-17.301
ষ	-17.302
穿	-17.302
ঁ	-17.3021
說	-17.3022
워	-17.3025
戴	-17.3025
ല	-17.3025
ळ	-17.3037
頭	-17.3039
😻	-17.3041
약	-17.3043
軍	-17.3049
兔	-17.3052
ᴏ	-17.3053
ὄ	-17.3054
风	-17.3057
让	-17.3059
🏳	-17.3061
吉	-17.3064
鏡	-17.3064
云	-17.3064
驗	-17.3064
創	-17.3065
兩	-17.3066
液	-17.3066
维	-17.3066
♎	-17.3068
維	-17.3069
除	-17.3069
설	-17.3071
便	-17.3072
۔	-17.3073
ⲟ	-17.3073
점	-17.3074
🍋	-17.3074
־	-17.3074
☭	-17.3076
買	-17.3076
చ	-17.3077
享	-17.3077
確	-17.3078
坛	-17.3078
塞	-17.3079
府	-17.3079
菜	-17.3079
庭	-17.3079
➥	-17.308
🇰	-17.308
添	-17.308
浏	-17.3081
记	-17.3082
ᾶ	-17.3083
ම	-17.3083
据	-17.3084
💔	-17.3085
樓	-17.3085
越	-17.3086
➼	-17.3087
ず	-17.3088
음	-17.3088
户	-17.3088
皆	-17.3089
未	-17.3091
猫	-17.3093
🎧	-17.3093
📢	-17.3093
朝	-17.3093
🇫	-17.3093
运	-17.3093
😒	-17.3095
寫	-17.3095
🤘	-17.3095
ү	-17.3095
突	-17.3098
永	-17.3099
🐰	-17.3099
線	-17.31
😑	-17.31
☹	-17.31
눇	-17.3103
赛	-17.3103
秋	-17.3104
₵	-17.3104
🌌	-17.3105
環	-17.3106
崎	-17.3107
述	-17.3107
染	-17.3107
ր	-17.3107
📞	-17.3111
ヒ	-17.3112
१	-17.3112
协	-17.3114
💍	-17.3115
😷	-17.3116
热	-17.3117
関	-17.3118
♻	-17.3119
ն	-17.3124
歳	-17.3126
≧	-17.3126
ᴀ	-17.313
猛	-17.3135
恭	-17.3139
💵	-17.3151
兒	-17.3748
縣	-17.3755
ญ	-17.3767
번	-17.3783
且	-17.3788
車	-17.3802
許	-17.3812
較	-17.3812
🍁	-17.3822
暴	-17.3823
餐	-17.3824
互	-17.3825
鱼	-17.3825
幸	-17.3827
半	-17.3827
ಗ	-17.3827
식	-17.3828
〜	-17.383
析	-17.383
ʕ	-17.3831
差	-17.3834
排	-17.3834
值	-17.3836
仲	-17.3839
汉	-17.3839
码	-17.3841
张	-17.3841
状	-17.3842
♨	-17.3843
稿	-17.3844
条	-17.3845
ॉ	-17.3848
訊	-17.385
등	-17.385
∇	-17.3851
ో	-17.3851
贝	-17.3852
麻	-17.3852
Ș	-17.3852
態	-17.3853
커	-17.3854
♢	-17.3855
∀	-17.3855
强	-17.3856
ே	-17.3857
份	-17.3857
宇	-17.3857
ং	-17.3858
ী	-17.3858
놀	-17.3858
際	-17.3858
색	-17.3859
組	-17.386
票	-17.386
宗	-17.3861
认	-17.3861
適	-17.3861
曜	-17.3862
르	-17.3863
带	-17.3863
廃	-17.3864
ؤ	-17.3864
円	-17.3866
变	-17.3866
💀	-17.3866
ホ	-17.3867
两	-17.3867
🐾	-17.3868
種	-17.3868
ォ	-17.3869
富	-17.387
ḳ	-17.3871
属	-17.3873
卡	-17.3873
📈	-17.3874
ո	-17.3874
环	-17.3875
ゴ	-17.3875
段	-17.3876
↝	-17.3876
銀	-17.3876
財	-17.3877
ာ	-17.3878
반	-17.3878
楽	-17.3878
Ľ	-17.3879
痛	-17.388
席	-17.3882
청	-17.3883
॥	-17.3883
랑	-17.3883
₴	-17.3884
ಡ	-17.3886
停	-17.3887
ひ	-17.3888
វ	-17.3888
岁	-17.3889
Ξ	-17.3889
❓	-17.3889
ὑ	-17.3891
🌴	-17.3892
┐	-17.3893
ḩ	-17.3895
还	-17.3911
ի	-17.3912
់	-17.3935
ર	-17.3964
જ	-17.3969
⛔	-17.4573
虎	-17.4582
𐑲	-17.4596
守	-17.4617
𐑱	-17.4619
ங	-17.462
려	-17.4625
久	-17.4639
👄	-17.4639
린	-17.4644
✫	-17.4644
區	-17.4647
控	-17.4651
試	-17.4653
晶	-17.4654
抵	-17.4655
플	-17.4657
ீ	-17.4658
🇱	-17.4659
豪	-17.4661
🤝	-17.4662
劉	-17.4662
글	-17.4663
找	-17.4663
娘	-17.4663
传	-17.4667
节	-17.4667
থ	-17.4668
還	-17.467
奇	-17.4672
组	-17.4672
울	-17.4673
叫	-17.4674
效	-17.4674
품	-17.4675
敦	-17.4675
ᑦ	-17.4676
ತ	-17.4676
群	-17.4677
හ	-17.4678
형	-17.4679
宮	-17.4679
🎓	-17.468
🇹	-17.468
顯	-17.4683
ŕ	-17.4684
😡	-17.4684
俊	-17.4684
ἄ	-17.4685
ප	-17.4685
복	-17.4685
聯	-17.4685
股	-17.4686
佛	-17.4687
ත	-17.4687
율	-17.4687
축	-17.4689
決	-17.4689
奶	-17.469
嘉	-17.469
冠	-17.4691
〒	-17.4691
興	-17.4692
贵	-17.4692
認	-17.4692
求	-17.4692
ґ	-17.4692
⎜	-17.4692
ஸ	-17.4693
刻	-17.4694
兴	-17.4696
错	-17.4698
杂	-17.4698
😬	-17.4698
🎊	-17.47
辑	-17.47
续	-17.47
买	-17.4701
怎	-17.4702
干	-17.4702
欧	-17.4703
🤞	-17.4703
🎟	-17.4704
谈	-17.4708
类	-17.4709
领	-17.471
银	-17.471
မ	-17.471
‿	-17.4711
转	-17.4711
◀	-17.4712
춤	-17.4712
😞	-17.4714
ᴛ	-17.4714
💘	-17.4716
☾	-17.4717
兼	-17.4717
ល	-17.4718
奥	-17.4718
ヴ	-17.4719
拜	-17.472
🔷	-17.4721
狀	-17.4721
❃	-17.4721
Ў	-17.4722
毕	-17.4726
伊	-17.4727
🚲	-17.4729
🍒	-17.4729
ᅲ	-17.4729
珊	-17.473
̴	-17.4731
╍	-17.4731
郑	-17.4732
单	-17.4734
套	-17.4736
웃	-17.4737
🔝	-17.4743
ី	-17.4746
律	-17.4747
𐑖	-17.551
透	-17.5513
𐑤	-17.5514
𐑥	-17.5516
證	-17.5519
升	-17.5528
날	-17.5532
⁡	-17.5533
ٍ	-17.5534
ٰ	-17.5536
♒	-17.5542
ֲ	-17.5547
록	-17.5553
仪	-17.5553
訪	-17.5554
양	-17.5554
🍊	-17.5556
ಯ	-17.5556
법	-17.5557
택	-17.556
ǀ	-17.5566
☘	-17.5567
击	-17.5567
캐	-17.5568
麗	-17.5568
Ю	-17.5568
率	-17.557
물	-17.5573
ವ	-17.5573
笑	-17.5573
融	-17.5574
極	-17.5577
伦	-17.5579
🎬	-17.5579
ʽ	-17.5579
勝	-17.5579
😺	-17.5581
ಸ	-17.5582
љ	-17.5583
帮	-17.5584
极	-17.5584
议	-17.5584
ѡ	-17.5585
急	-17.5586
航	-17.5586
魚	-17.5587
細	-17.5587
申	-17.5588
판	-17.559
皮	-17.559
具	-17.559
🎀	-17.5591
购	-17.5593
ὅ	-17.5593
🎙	-17.5593
ಟ	-17.5593
ᴡ	-17.5594
識	-17.5594
厅	-17.5595
🔍	-17.5595
蛋	-17.5596
判	-17.5597
討	-17.5597
ẹ	-17.5598
ព	-17.5598
洛	-17.5599
谷	-17.5599
ས	-17.5599
池	-17.56
ბ	-17.56
두	-17.56
참	-17.5601
露	-17.5601
말	-17.5601
查	-17.5602
價	-17.5602
🛍	-17.5602
巾	-17.5602
佐	-17.5603
너	-17.5603
ិ	-17.5603
編	-17.5603
迎	-17.5603
ỏ	-17.5603
⏱	-17.5604
👽	-17.5605
速	-17.5605
알	-17.5606
纪	-17.5608
括	-17.5609
拿	-17.5609
亲	-17.561
床	-17.5611
ณ	-17.5611
剧	-17.5612
观	-17.5612
務	-17.5612
య	-17.5613
🐱	-17.5613
韓	-17.5613
ẩ	-17.5613
依	-17.5614
⇩	-17.5614
奈	-17.5614
处	-17.5614
企	-17.5615
Ī	-17.5616
״	-17.5617
ġ	-17.5618
💣	-17.5618
万	-17.5618
❏	-17.5618
激	-17.5619
🌙	-17.562
🐟	-17.562
▫	-17.5621
민	-17.5622
⇆	-17.5622
权	-17.5623
╱	-17.5624
紙	-17.5624
ᴇ	-17.5624
⚙	-17.5624
🍾	-17.5624
省	-17.5626
께	-17.5627
汚	-17.5627
戦	-17.5627
📅	-17.5627
伴	-17.5628
親	-17.5629
湾	-17.5631
講	-17.5634
租	-17.5634
ぺ	-17.5637
戏	-17.5637
ῳ	-17.5638
曾	-17.5639
ʟ	-17.564
ɩ	-17.5644
Ƹ	-17.5646
茎	-17.5647
ત	-17.5671
厂	-17.5684
Ҭ	-17.5697
ർ	-17.623
ങ	-17.6505
֖	-17.6538
ლ	-17.6556
ෙ	-17.6559
ᖅ	-17.656
অ	-17.6567
ڑ	-17.6569
Ṭ	-17.6572
ದ	-17.6577
ු	-17.658
ङ	-17.6582
ƅ	-17.6586
ೆ	-17.6588
ञ	-17.6589
డ	-17.6598
ŵ	-17.6599
̩	-17.6602
მ	-17.6604
๋	-17.6604
ʔ	-17.6605
ĺ	-17.661
Є	-17.6611
ད	-17.6612
თ	-17.6612
ན	-17.6614
▄	-17.6617
Ğ	-17.6617
າ	-17.6627
ગ	-17.6635
ɴ	-17.6641
Ʒ	-17.6642
ે	-17.6767
